{
  "version": "1.0",
  "truncation": null,
  "padding": null,
  "added_tokens": [
    {
      "id": 0,
      "content": "[UNK]",
      "single_word": false,
      "lstrip": false,
      "rstrip": false,
      "normalized": false,
      "special": true
    },
    {
      "id": 1,
      "content": "[CLS]",
      "single_word": false,
      "lstrip": false,
      "rstrip": false,
      "normalized": false,
      "special": true
    },
    {
      "id": 2,
      "content": "[SEP]",
      "single_word": false,
      "lstrip": false,
      "rstrip": false,
      "normalized": false,
      "special": true
    },
    {
      "id": 3,
      "content": "[PAD]",
      "single_word": false,
      "lstrip": false,
      "rstrip": false,
      "normalized": false,
      "special": true
    },
    {
      "id": 4,
      "content": "[MASK]",
      "single_word": false,
      "lstrip": false,
      "rstrip": false,
      "normalized": false,
      "special": true
    },
    {
      "id": 5,
      "content": " ",
      "single_word": false,
      "lstrip": false,
      "rstrip": false,
      "normalized": false,
      "special": true
    },
    {
      "id": 6,
      "content": "#",
      "single_word": false,
      "lstrip": false,
      "rstrip": false,
      "normalized": false,
      "special": true
    },
    {
      "id": 7,
      "content": "<",
      "single_word": false,
      "lstrip": false,
      "rstrip": false,
      "normalized": false,
      "special": true
    },
    {
      "id": 8,
      "content": ">",
      "single_word": false,
      "lstrip": false,
      "rstrip": false,
      "normalized": false,
      "special": true
    }
  ],
  "normalizer": null,
  "pre_tokenizer": {
    "type": "Whitespace"
  },
  "post_processor": null,
  "decoder": null,
  "model": {
    "type": "BPE",
    "dropout": null,
    "unk_token": "[UNK]",
    "continuing_subword_prefix": null,
    "end_of_word_suffix": null,
    "fuse_unk": false,
    "byte_fallback": false,
    "vocab": {
      "[UNK]": 0,
      "[CLS]": 1,
      "[SEP]": 2,
      "[PAD]": 3,
      "[MASK]": 4,
      " ": 5,
      "#": 6,
      "<": 7,
      ">": 8,
      "ँ": 9,
      "ं": 10,
      "ः": 11,
      "अ": 12,
      "आ": 13,
      "इ": 14,
      "ई": 15,
      "उ": 16,
      "ऊ": 17,
      "ऋ": 18,
      "ऍ": 19,
      "ऎ": 20,
      "ए": 21,
      "ऐ": 22,
      "ऑ": 23,
      "ओ": 24,
      "औ": 25,
      "क": 26,
      "ख": 27,
      "ग": 28,
      "घ": 29,
      "ङ": 30,
      "च": 31,
      "छ": 32,
      "ज": 33,
      "झ": 34,
      "ञ": 35,
      "ट": 36,
      "ठ": 37,
      "ड": 38,
      "ढ": 39,
      "ण": 40,
      "त": 41,
      "थ": 42,
      "द": 43,
      "ध": 44,
      "न": 45,
      "ऩ": 46,
      "प": 47,
      "फ": 48,
      "ब": 49,
      "भ": 50,
      "म": 51,
      "य": 52,
      "र": 53,
      "ऱ": 54,
      "ल": 55,
      "ळ": 56,
      "व": 57,
      "श": 58,
      "ष": 59,
      "स": 60,
      "ह": 61,
      "़": 62,
      "ा": 63,
      "ि": 64,
      "ी": 65,
      "ु": 66,
      "ू": 67,
      "ृ": 68,
      "ॅ": 69,
      "ॆ": 70,
      "े": 71,
      "ै": 72,
      "ॉ": 73,
      "ो": 74,
      "ौ": 75,
      "्": 76,
      "॰": 77,
      "्र": 78,
      "के": 79,
      "ार": 80,
      "ने": 81,
      "ें": 82,
      "ों": 83,
      "या": 84,
      "में": 85,
      "है": 86,
      "्य": 87,
      "की": 88,
      "कि": 89,
      "का": 90,
      "को": 91,
      "प्र": 92,
      "से": 93,
      "र्": 94,
      "ान": 95,
      "स्": 96,
      "कर": 97,
      "क्": 98,
      "ना": 99,
      "वि": 100,
      "रा": 101,
      "वा": 102,
      "और": 103,
      "ता": 104,
      "त्र": 105,
      "ला": 106,
      "हा": 107,
      "कार": 108,
      "पर": 109,
      "न्": 110,
      "दे": 111,
      "लि": 112,
      "ले": 113,
      "जा": 114,
      "ित": 115,
      "नि": 116,
      "क्ष": 117,
      "मा": 118,
      "सं": 119,
      "मं": 120,
      "सा": 121,
      "इस": 122,
      "देश": 123,
      "ही": 124,
      "भी": 125,
      "ति": 126,
      "ोग": 127,
      "दि": 128,
      "मंत्र": 129,
      "ये": 130,
      "पा": 131,
      "कहा": 132,
      "भा": 133,
      "ती": 134,
      "मंत्री": 135,
      "गा": 136,
      "जि": 137,
      "ुर": 138,
      "ड़": 139,
      "बा": 140,
      "मु": 141,
      "राज": 142,
      "त्": 143,
      "स्थ": 144,
      "किया": 145,
      "यों": 146,
      "दी": 147,
      "सम": 148,
      "सर": 149,
      "लिए": 150,
      "हो": 151,
      "ली": 152,
      "धि": 153,
      "एक": 154,
      "सी": 155,
      "री": 156,
      "हु": 157,
      "द्र": 158,
      "उन्": 159,
      "द्": 160,
      "ते": 161,
      "हैं": 162,
      "मि": 163,
      "हों": 164,
      "ंग": 165,
      "सि": 166,
      "रो": 167,
      "्ट": 168,
      "मुख": 169,
      "्री": 170,
      "धान": 171,
      "यो": 172,
      "रह": 173,
      "होंने": 174,
      "नी": 175,
      "उन्होंने": 176,
      "राज्य": 177,
      "चा": 178,
      "क्र": 179,
      "गया": 180,
      "पू": 181,
      "ल्": 182,
      "शा": 183,
      "प्रदेश": 184,
      "ारी": 185,
      "ओं": 186,
      "रि": 187,
      "शि": 188,
      "सु": 189,
      "करने": 190,
      "आज": 191,
      "जन": 192,
      "दा": 193,
      "लोग": 194,
      "वार": 195,
      "कार्य": 196,
      "चार": 197,
      "सरकार": 198,
      "निर्": 199,
      "मुख्य": 200,
      "अधि": 201,
      "रू": 202,
      "अप": 203,
      "्या": 204,
      "ढ़": 205,
      "न्द्र": 206,
      "दो": 207,
      "हि": 208,
      "मी": 209,
      "हीं": 210,
      "रे": 211,
      "ियों": 212,
      "अन": 213,
      "वे": 214,
      "पुर": 215,
      "साथ": 216,
      "बी": 217,
      "ंच": 218,
      "क्षा": 219,
      "टी": 220,
      "जी": 221,
      "गी": 222,
      "तर": 223,
      "लों": 224,
      "योज": 225,
      "लोगों": 226,
      "मार": 227,
      "भार": 228,
      "ौर": 229,
      "ष्ट": 230,
      "वी": 231,
      "क्रम": 232,
      "िया": 233,
      "ध्य": 234,
      "श्": 235,
      "मो": 236,
      "मुख्यमंत्री": 237,
      "तक": 238,
      "ंड": 239,
      "श्री": 240,
      "वर्": 241,
      "गे": 242,
      "क्षे": 243,
      "कल": 244,
      "मान": 245,
      "जिले": 246,
      "क्षेत्र": 247,
      "उप": 248,
      "बं": 249,
      "बार": 250,
      "कु": 251,
      "रहे": 252,
      "बता": 253,
      "म्": 254,
      "भाग": 255,
      "योग": 256,
      "मे": 257,
      "लय": 258,
      "पु": 259,
      "बाद": 260,
      "हुए": 261,
      "पह": 262,
      "बताया": 263,
      "परि": 264,
      "जार": 265,
      "चि": 266,
      "सौ": 267,
      "प्रधान": 268,
      "उन": 269,
      "सभी": 270,
      "प्रति": 271,
      "दिया": 272,
      "च्": 273,
      "मौ": 274,
      "बि": 275,
      "कारी": 276,
      "पूर्": 277,
      "गई": 278,
      "व्य": 279,
      "यह": 280,
      "बै": 281,
      "रही": 282,
      "चु": 283,
      "जाए": 284,
      "कों": 285,
      "प्रधानमंत्री": 286,
      "था": 287,
      "लो": 288,
      "टर": 289,
      "शन": 290,
      "यु": 291,
      "कोरो": 292,
      "कोरोना": 293,
      "हजार": 294,
      "नहीं": 295,
      "केन्द्र": 296,
      "प्": 297,
      "पी": 298,
      "पार": 299,
      "धा": 300,
      "योजना": 301,
      "बना": 302,
      "रहा": 303,
      "इन": 304,
      "ग्र": 305,
      "सिं": 306,
      "बर": 307,
      "खा": 308,
      "सभा": 309,
      "दौर": 310,
      "पाल": 311,
      "्रे": 312,
      "नों": 313,
      "होग": 314,
      "समा": 315,
      "सार": 316,
      "बंध": 317,
      "क्त": 318,
      "गर": 319,
      "ानों": 320,
      "राष्ट": 321,
      "कृ": 322,
      "िक": 323,
      "अनु": 324,
      "ीय": 325,
      "टे": 326,
      "दू": 327,
      "ब्": 328,
      "सिंह": 329,
      "हर": 330,
      "स्वा": 331,
      "बढ़": 332,
      "स्त": 333,
      "रूप": 334,
      "अव": 335,
      "विभाग": 336,
      "लगा": 337,
      "वारा": 338,
      "सह": 339,
      "दौरान": 340,
      "मिल": 341,
      "भि": 342,
      "होने": 343,
      "लिस": 344,
      "न्न": 345,
      "माम": 346,
      "चौ": 347,
      "जो": 348,
      "डि": 349,
      "मोदी": 350,
      "स्था": 351,
      "यी": 352,
      "तीन": 353,
      "दान": 354,
      "ेंगे": 355,
      "कार्यक्रम": 356,
      "ध्यक्ष": 357,
      "बे": 358,
      "विका": 359,
      "कर्": 360,
      "इसके": 361,
      "ुरू": 362,
      "अं": 363,
      "प्रा": 364,
      "अपने": 365,
      "सू": 366,
      "श्र": 367,
      "विकास": 368,
      "सम्": 369,
      "शी": 370,
      "दर्": 371,
      "स्व": 372,
      "टना": 373,
      "ठा": 374,
      "वन": 375,
      "जान": 376,
      "राम": 377,
      "द्वारा": 378,
      "णा": 379,
      "नाव": 380,
      "स्वास्थ": 381,
      "धार": 382,
      "वाले": 383,
      "जारी": 384,
      "हत": 385,
      "बो": 386,
      "स्वास्थ्य": 387,
      "पुलिस": 388,
      "भारत": 389,
      "बैठ": 390,
      "अध्यक्ष": 391,
      "जिला": 392,
      "किस": 393,
      "डी": 394,
      "उत्": 395,
      "सद": 396,
      "च्च": 397,
      "सुर": 398,
      "ड़ी": 399,
      "करते": 400,
      "ष्": 401,
      "जाये": 402,
      "धी": 403,
      "गां": 404,
      "कता": 405,
      "मत": 406,
      "अधिक": 407,
      "ंद्र": 408,
      "निर्देश": 409,
      "स्ट": 410,
      "बैठक": 411,
      "पि": 412,
      "रख": 413,
      "चल": 414,
      "स्थित": 415,
      "काश": 416,
      "जय": 417,
      "अब": 418,
      "मह": 419,
      "्टी": 420,
      "शुरू": 421,
      "कोवि": 422,
      "शे": 423,
      "लग": 424,
      "लिये": 425,
      "पे": 426,
      "वर्ष": 427,
      "द्य": 428,
      "्रीय": 429,
      "वहीं": 430,
      "लाख": 431,
      "जे": 432,
      "डा": 433,
      "अन्य": 434,
      "क्षण": 435,
      "तीस": 436,
      "पांच": 437,
      "सो": 438,
      "तीय": 439,
      "करा": 440,
      "भिन्न": 441,
      "ाना": 442,
      "कई": 443,
      "पो": 444,
      "ड़ा": 445,
      "विभिन्न": 446,
      "चुनाव": 447,
      "आई": 448,
      "पत्र": 449,
      "ानी": 450,
      "महा": 451,
      "ज्": 452,
      "करण": 453,
      "विधा": 454,
      "एस": 455,
      "टा": 456,
      "हुई": 457,
      "कांग": 458,
      "अधिकार": 459,
      "यर": 460,
      "ंद": 461,
      "अभ": 462,
      "काम": 463,
      "ंक": 464,
      "श्व": 465,
      "क्ति": 466,
      "धन": 467,
      "योजित": 468,
      "अवसर": 469,
      "पार्टी": 470,
      "सके": 471,
      "गत": 472,
      "खि": 473,
      "विधान": 474,
      "हार": 475,
      "तार": 476,
      "होगा": 477,
      "बात": 478,
      "संक्रम": 479,
      "जपा": 480,
      "दु": 481,
      "कोविड": 482,
      "रण": 483,
      "गो": 484,
      "एं": 485,
      "कुमार": 486,
      "न्या": 487,
      "्ड": 488,
      "आयोजित": 489,
      "ीक्षा": 490,
      "जब": 491,
      "जु": 492,
      "संबंध": 493,
      "पहले": 494,
      "राष्ट्रीय": 495,
      "पर्": 496,
      "केंद्र": 497,
      "निक": 498,
      "णी": 499,
      "भाजपा": 500,
      "शेष": 501,
      "कम": 502,
      "लिया": 503,
      "घा": 504,
      "लोक": 505,
      "ताओं": 506,
      "स्क": 507,
      "मू": 508,
      "दिन": 509,
      "थे": 510,
      "्रेस": 511,
      "तै": 512,
      "जाएगा": 513,
      "शास": 514,
      "व्यव": 515,
      "टि": 516,
      "िर": 517,
      "कांग्रेस": 518,
      "डॉ": 519,
      "भर": 520,
      "जू": 521,
      "दिव": 522,
      "पं": 523,
      "गयी": 524,
      "छा": 525,
      "तहत": 526,
      "स्प": 527,
      "जाने": 528,
      "विशेष": 529,
      "मामले": 530,
      "ची": 531,
      "पूर्व": 532,
      "पटना": 533,
      "महि": 534,
      "स्थान": 535,
      "गए": 536,
      "भू": 537,
      "ियान": 538,
      "उपल": 539,
      "तथा": 540,
      "ग्रा": 541,
      "फ्": 542,
      "गये": 543,
      "वाई": 544,
      "आर": 545,
      "महिला": 546,
      "थी": 547,
      "ख्या": 548,
      "क्टर": 549,
      "प्त": 550,
      "जानकारी": 551,
      "जल": 552,
      "लेकर": 553,
      "अभियान": 554,
      "वै": 555,
      "किसानों": 556,
      "बीच": 557,
      "लन": 558,
      "यालय": 559,
      "मन": 560,
      "देने": 561,
      "ड़े": 562,
      "उपलब्": 563,
      "वाद": 564,
      "षि": 565,
      "शो": 566,
      "किए": 567,
      "सचि": 568,
      "्यू": 569,
      "कल्": 570,
      "जांच": 571,
      "नाथ": 572,
      "ज्ञ": 573,
      "भारतीय": 574,
      "र्थ": 575,
      "धर": 576,
      "चित": 577,
      "अधिकारियों": 578,
      "सहित": 579,
      "शु": 580,
      "ोड़": 581,
      "र्ट": 582,
      "गांव": 583,
      "व्यवस्था": 584,
      "चना": 585,
      "धित": 586,
      "सेवा": 587,
      "संख्या": 588,
      "समय": 589,
      "शामिल": 590,
      "रेन्द्र": 591,
      "भाव": 592,
      "निय": 593,
      "बीस": 594,
      "पै": 595,
      "युक्त": 596,
      "ालय": 597,
      "एम": 598,
      "कॉ": 599,
      "शिक्षा": 600,
      "उपा": 601,
      "जिस": 602,
      "फै": 603,
      "समाचार": 604,
      "विधानसभा": 605,
      "जग": 606,
      "यार": 607,
      "हन": 608,
      "गढ़": 609,
      "गठ": 610,
      "ध्यम": 611,
      "नौ": 612,
      "होगी": 613,
      "खे": 614,
      "रिया": 615,
      "मारी": 616,
      "हें": 617,
      "ट्र": 618,
      "विश्व": 619,
      "गु": 620,
      "त्व": 621,
      "नई": 622,
      "आप": 623,
      "किये": 624,
      "दर": 625,
      "राष्ट्र": 626,
      "हां": 627,
      "कारण": 628,
      "यक": 629,
      "सात": 630,
      "मंत्रालय": 631,
      "उपलब्ध": 632,
      "मरी": 633,
      "तो": 634,
      "सब": 635,
      "ल्ली": 636,
      "क्षेत्रों": 637,
      "सचिव": 638,
      "मौसम": 639,
      "श्य": 640,
      "त्य": 641,
      "पूर्ण": 642,
      "जायेगा": 643,
      "माण": 644,
      "सुरक्षा": 645,
      "पहु": 646,
      "बढ़ा": 647,
      "सक": 648,
      "करेंगे": 649,
      "कृषि": 650,
      "जिलों": 651,
      "ष्ठ": 652,
      "पिछ": 653,
      "नीति": 654,
      "दिल्ली": 655,
      "नरेन्द्र": 656,
      "स्तर": 657,
      "वं": 658,
      "हुआ": 659,
      "खंड": 660,
      "कान": 661,
      "घो": 662,
      "सर्": 663,
      "घर": 664,
      "आकाश": 665,
      "वाणी": 666,
      "िश": 667,
      "ंत्र": 668,
      "अस्प": 669,
      "टन": 670,
      "अस्पता": 671,
      "राय": 672,
      "मार्": 673,
      "गं": 674,
      "ंगे": 675,
      "पति": 676,
      "केन्द्रीय": 677,
      "पास": 678,
      "यू": 679,
      "नगर": 680,
      "ध्या": 681,
      "बु": 682,
      "प्रसार": 683,
      "उनके": 684,
      "कोई": 685,
      "वान": 686,
      "मै": 687,
      "इं": 688,
      "मरीज": 689,
      "आकाशवाणी": 690,
      "बारिश": 691,
      "वास": 692,
      "माध्यम": 693,
      "खबर": 694,
      "यत": 695,
      "इला": 696,
      "योजन": 697,
      "सै": 698,
      "विद्": 699,
      "उन्हें": 700,
      "बोधित": 701,
      "शासन": 702,
      "रेल": 703,
      "अनुसार": 704,
      "फा": 705,
      "करना": 706,
      "करोड़": 707,
      "संक्रमण": 708,
      "ार्": 709,
      "वाली": 710,
      "किसी": 711,
      "आठ": 712,
      "त्या": 713,
      "नेता": 714,
      "तरह": 715,
      "खिला": 716,
      "सला": 717,
      "चाहि": 718,
      "अग": 719,
      "आव": 720,
      "जरू": 721,
      "पद": 722,
      "बह": 723,
      "तैयार": 724,
      "पिछले": 725,
      "डल": 726,
      "मला": 727,
      "परीक्षा": 728,
      "हमार": 729,
      "जै": 730,
      "स्थानों": 731,
      "रूपये": 732,
      "लाई": 733,
      "बनाने": 734,
      "दिवस": 735,
      "झा": 736,
      "कै": 737,
      "प्रभा": 738,
      "आयोजन": 739,
      "यन": 740,
      "दस": 741,
      "अपनी": 742,
      "पक्ष": 743,
      "सुविधा": 744,
      "छह": 745,
      "गिर": 746,
      "घोष": 747,
      "चन": 748,
      "राज्यपाल": 749,
      "प्रमुख": 750,
      "ज़": 751,
      "प्रया": 752,
      "एन": 753,
      "मना": 754,
      "इससे": 755,
      "अधिकारी": 756,
      "निर्माण": 757,
      "प्रे": 758,
      "बारे": 759,
      "त्रा": 760,
      "बल": 761,
      "टों": 762,
      "सां": 763,
      "देख": 764,
      "रु": 765,
      "चाहिए": 766,
      "आयोग": 767,
      "भो": 768,
      "लावा": 769,
      "राज्यों": 770,
      "ून": 771,
      "हम": 772,
      "जर": 773,
      "ट्": 774,
      "डे": 775,
      "स्य": 776,
      "दिए": 777,
      "बच्च": 778,
      "आरो": 779,
      "मिले": 780,
      "जनता": 781,
      "हमारे": 782,
      "निर्वा": 783,
      "करे": 784,
      "च्छ": 785,
      "सड़": 786,
      "लॉ": 787,
      "कुर": 788,
      "टीका": 789,
      "वित": 790,
      "पालन": 791,
      "शत": 792,
      "श्रद्": 793,
      "रोक": 794,
      "आवश्य": 795,
      "पित": 796,
      "डॉक्टर": 797,
      "गू": 798,
      "आने": 799,
      "मतदान": 800,
      "कां": 801,
      "अलावा": 802,
      "सूचना": 803,
      "तम": 804,
      "बिहार": 805,
      "वर": 806,
      "ठाकुर": 807,
      "मद": 808,
      "पूरी": 809,
      "व्यक्ति": 810,
      "चरण": 811,
      "दाता": 812,
      "बन": 813,
      "संवाद": 814,
      "ओर": 815,
      "र्चा": 816,
      "उच्च": 817,
      "्रा": 818,
      "दल": 819,
      "आधार": 820,
      "क्षित": 821,
      "कुछ": 822,
      "ारो": 823,
      "जाएगी": 824,
      "संबोधित": 825,
      "ील": 826,
      "स्कू": 827,
      "अलग": 828,
      "लू": 829,
      "षण": 830,
      "प्रतिशत": 831,
      "एवं": 832,
      "सदस्य": 833,
      "पंचा": 834,
      "ण्ड": 835,
      "हे": 836,
      "चे": 837,
      "मौत": 838,
      "नाग": 839,
      "मित": 840,
      "स्थिति": 841,
      "कित्": 842,
      "जबकि": 843,
      "गति": 844,
      "पोर्ट": 845,
      "लीस": 846,
      "द्ध": 847,
      "क्षक": 848,
      "त्तर": 849,
      "उद्": 850,
      "खिलाफ": 851,
      "मीण": 852,
      "िति": 853,
      "चिकित्": 854,
      "प्रकाश": 855,
      "आत": 856,
      "मौके": 857,
      "उस": 858,
      "्यालय": 859,
      "ग्रामीण": 860,
      "भे": 861,
      "धियों": 862,
      "बचा": 863,
      "दर्शन": 864,
      "दिये": 865,
      "प्रशासन": 866,
      "कर्म": 867,
      "दूसर": 868,
      "घटना": 869,
      "नाम": 870,
      "पहुंच": 871,
      "निर्वाचन": 872,
      "प्रयास": 873,
      "द्योग": 874,
      "त्म": 875,
      "व्या": 876,
      "लोकसभा": 877,
      "त्तीस": 878,
      "र्ड": 879,
      "कृति": 880,
      "भग": 881,
      "मंडल": 882,
      "भारी": 883,
      "समारो": 884,
      "ज्ञान": 885,
      "स्ता": 886,
      "तर्": 887,
      "दन": 888,
      "हित": 889,
      "फी": 890,
      "वो": 891,
      "मल": 892,
      "राष्ट्रपति": 893,
      "अपील": 894,
      "रत": 895,
      "वाल": 896,
      "वल": 897,
      "क्सी": 898,
      "शिमला": 899,
      "सबसे": 900,
      "जाग": 901,
      "दूर": 902,
      "अस्पताल": 903,
      "महत्व": 904,
      "यल": 905,
      "समारोह": 906,
      "योगी": 907,
      "निश्": 908,
      "हिमा": 909,
      "दिशा": 910,
      "जाय": 911,
      "ारह": 912,
      "गिरफ्": 913,
      "युवा": 914,
      "वरि": 915,
      "भावना": 916,
      "काल": 917,
      "विद्यालय": 918,
      "फि": 919,
      "वायर": 920,
      "मृ": 921,
      "शल": 922,
      "मर": 923,
      "सत्र": 924,
      "र्ष": 925,
      "जागरू": 926,
      "चर्चा": 927,
      "क्स": 928,
      "मामलों": 929,
      "योजनाओं": 930,
      "गृ": 931,
      "थाना": 932,
      "नो": 933,
      "वरिष्ठ": 934,
      "धानी": 935,
      "थियों": 936,
      "घं": 937,
      "याद": 938,
      "उनकी": 939,
      "ताप": 940,
      "किसान": 941,
      "इधर": 942,
      "चला": 943,
      "करें": 944,
      "ारा": 945,
      "निश्चित": 946,
      "कं": 947,
      "गांधी": 948,
      "सकते": 949,
      "फर": 950,
      "कस": 951,
      "ंगा": 952,
      "वेश": 953,
      "हरा": 954,
      "याण": 955,
      "विचार": 956,
      "नागरि": 957,
      "जीवन": 958,
      "सम्मान": 959,
      "जायेगी": 960,
      "वायरस": 961,
      "कल्याण": 962,
      "ेश": 963,
      "म्मी": 964,
      "रात": 965,
      "पंचायत": 966,
      "बजे": 967,
      "आरोप": 968,
      "नीस": 969,
      "महामारी": 970,
      "चीत": 971,
      "निया": 972,
      "उन्नीस": 973,
      "मांग": 974,
      "अर्": 975,
      "विद्य": 976,
      "बातचीत": 977,
      "परिवार": 978,
      "बच्चों": 979,
      "लॉक": 980,
      "उम्मी": 981,
      "खु": 982,
      "क्रिया": 983,
      "नये": 984,
      "किन": 985,
      "त्त": 986,
      "छत्तीस": 987,
      "न्यायालय": 988,
      "दिनों": 989,
      "मरीजों": 990,
      "दर्ज": 991,
      "ियां": 992,
      "समाज": 993,
      "साम": 994,
      "बंधन": 995,
      "स्टे": 996,
      "ग्रह": 997,
      "गृह": 998,
      "उठा": 999,
      "इसी": 1000,
      "गम": 1001,
      "वृ": 1002,
      "खन": 1003,
      "पट": 1004,
      "अपना": 1005,
      "बज": 1006,
      "कराने": 1007,
      "समीक्षा": 1008,
      "लं": 1009,
      "धिकारी": 1010,
      "मिक": 1011,
      "संक्रमित": 1012,
      "केंद्रीय": 1013,
      "उम्मीद": 1014,
      "पन": 1015,
      "घोषणा": 1016,
      "करी": 1017,
      "पानी": 1018,
      "ईस": 1019,
      "हिमाचल": 1020,
      "टीम": 1021,
      "सरकारी": 1022,
      "दार": 1023,
      "हरी": 1024,
      "गिरफ्तार": 1025,
      "शर्": 1026,
      "विष": 1027,
      "ष्टि": 1028,
      "भूमि": 1029,
      "ेंद्र": 1030,
      "समस्": 1031,
      "खी": 1032,
      "रखने": 1033,
      "समिति": 1034,
      "दिर": 1035,
      "सहा": 1036,
      "डियो": 1037,
      "दै": 1038,
      "स्वस्थ": 1039,
      "उत्तर": 1040,
      "लाइन": 1041,
      "ग्": 1042,
      "ट्रे": 1043,
      "नर": 1044,
      "राजधानी": 1045,
      "रोजग": 1046,
      "उत्पा": 1047,
      "संबंधित": 1048,
      "कद": 1049,
      "धे": 1050,
      "्व": 1051,
      "दैनिक": 1052,
      "िता": 1053,
      "सुबह": 1054,
      "कल्प": 1055,
      "डाउन": 1056,
      "सड़क": 1057,
      "पूरा": 1058,
      "अगले": 1059,
      "साल": 1060,
      "स्कार": 1061,
      "निर्ण": 1062,
      "त्ता": 1063,
      "ंचा": 1064,
      "चौबीस": 1065,
      "पर्य": 1066,
      "ोल": 1067,
      "गि": 1068,
      "हिस्": 1069,
      "लाभ": 1070,
      "सुरक्षित": 1071,
      "आस": 1072,
      "थि": 1073,
      "फो": 1074,
      "रहने": 1075,
      "सिल": 1076,
      "रै": 1077,
      "सुनिश्चित": 1078,
      "मौजू": 1079,
      "दोनों": 1080,
      "गठन": 1081,
      "शहर": 1082,
      "कार्र": 1083,
      "ंत": 1084,
      "आदेश": 1085,
      "निर्णय": 1086,
      "तरी": 1087,
      "लत": 1088,
      "टल": 1089,
      "आवश्यक": 1090,
      "गरी": 1091,
      "कार्रवाई": 1092,
      "मही": 1093,
      "प्राप्त": 1094,
      "सांसद": 1095,
      "रोजगार": 1096,
      "मार्ग": 1097,
      "फल": 1098,
      "लाल": 1099,
      "प्रभावित": 1100,
      "छात्र": 1101,
      "राव": 1102,
      "पहली": 1103,
      "लगातार": 1104,
      "विधायक": 1105,
      "प्रो": 1106,
      "सकता": 1107,
      "मंदिर": 1108,
      "बंद": 1109,
      "जयराम": 1110,
      "महिलाओं": 1111,
      "ंज": 1112,
      "कट": 1113,
      "दों": 1114,
      "दित": 1115,
      "सुर्": 1116,
      "महत्वपूर्ण": 1117,
      "दूरी": 1118,
      "दश": 1119,
      "बजट": 1120,
      "शर्मा": 1121,
      "कानून": 1122,
      "वासी": 1123,
      "बेह": 1124,
      "खरी": 1125,
      "बड़ी": 1126,
      "मति": 1127,
      "प्रदान": 1128,
      "चिकित्सा": 1129,
      "प्ता": 1130,
      "मदद": 1131,
      "शाला": 1132,
      "लागू": 1133,
      "नदी": 1134,
      "न्याय": 1135,
      "राशि": 1136,
      "टीकाकरण": 1137,
      "तेज": 1138,
      "छत्तीसगढ़": 1139,
      "जल्": 1140,
      "सिंग": 1141,
      "फैसला": 1142,
      "लेकिन": 1143,
      "वरी": 1144,
      "बैंक": 1145,
      "जिक": 1146,
      "पक": 1147,
      "इसमें": 1148,
      "देशक": 1149,
      "रुप": 1150,
      "ंस": 1151,
      "होंगे": 1152,
      "यात्रा": 1153,
      "फिर": 1154,
      "अति": 1155,
      "लखन": 1156,
      "जिन": 1157,
      "कार्यालय": 1158,
      "लगभग": 1159,
      "ग्री": 1160,
      "डिया": 1161,
      "अध्यक्षता": 1162,
      "सें": 1163,
      "आम": 1164,
      "लाने": 1165,
      "लगाया": 1166,
      "तर्गत": 1167,
      "संचा": 1168,
      "प्रत्या": 1169,
      "कुल": 1170,
      "न्यू": 1171,
      "सीमा": 1172,
      "हरिया": 1173,
      "सेना": 1174,
      "मूल": 1175,
      "लयों": 1176,
      "सामा": 1177,
      "गण": 1178,
      "मास्क": 1179,
      "शिव": 1180,
      "देव": 1181,
      "प्रसारण": 1182,
      "आं": 1183,
      "शिक्षण": 1184,
      "्यादा": 1185,
      "नव": 1186,
      "र्म": 1187,
      "ध्यान": 1188,
      "दित्य": 1189,
      "मान्य": 1190,
      "सहयोग": 1191,
      "बनाया": 1192,
      "रायपुर": 1193,
      "मियों": 1194,
      "बनाए": 1195,
      "लखनऊ": 1196,
      "फस": 1197,
      "देखते": 1198,
      "सामाजिक": 1199,
      "जरि": 1200,
      "देते": 1201,
      "विद्यार्": 1202,
      "इंड": 1203,
      "ज्यादा": 1204,
      "तन": 1205,
      "ंभ": 1206,
      "यता": 1207,
      "बचाव": 1208,
      "प्रक्रिया": 1209,
      "क्ट": 1210,
      "संदेश": 1211,
      "नियम": 1212,
      "फे": 1213,
      "ग्राम": 1214,
      "ंकन": 1215,
      "व्यक्त": 1216,
      "कदम": 1217,
      "तंत्र": 1218,
      "माल": 1219,
      "महीने": 1220,
      "तल": 1221,
      "सव": 1222,
      "क्रि": 1223,
      "जरूरी": 1224,
      "दौ": 1225,
      "तापमान": 1226,
      "पश्": 1227,
      "दुर्": 1228,
      "बहु": 1229,
      "लॉकडाउन": 1230,
      "पण": 1231,
      "महान": 1232,
      "इसे": 1233,
      "ऑन": 1234,
      "समस्या": 1235,
      "एफ": 1236,
      "अपरा": 1237,
      "सुन": 1238,
      "प्राथ": 1239,
      "जल्द": 1240,
      "जिससे": 1241,
      "जहां": 1242,
      "सों": 1243,
      "लेने": 1244,
      "संभावना": 1245,
      "नजर": 1246,
      "ंता": 1247,
      "स्वच्छ": 1248,
      "उम्मीदवार": 1249,
      "जता": 1250,
      "दियों": 1251,
      "भवन": 1252,
      "बेहतर": 1253,
      "हरियाणा": 1254,
      "दाताओं": 1255,
      "पर्या": 1256,
      "शक्ति": 1257,
      "साद": 1258,
      "निजी": 1259,
      "सम्मे": 1260,
      "अभि": 1261,
      "जरूरत": 1262,
      "परिष": 1263,
      "रखा": 1264,
      "सियों": 1265,
      "मध्य": 1266,
      "तिम": 1267,
      "पूरे": 1268,
      "मीडिया": 1269,
      "पेश": 1270,
      "संवाददाता": 1271,
      "नामा": 1272,
      "लेज": 1273,
      "इसका": 1274,
      "देश्य": 1275,
      "राहत": 1276,
      "प्रतिनि": 1277,
      "वालों": 1278,
      "राजनीति": 1279,
      "आर्थ": 1280,
      "रिपोर्ट": 1281,
      "भोपाल": 1282,
      "सम्मेलन": 1283,
      "जिसमें": 1284,
      "पचा": 1285,
      "प्रचार": 1286,
      "आदित्य": 1287,
      "समाप्त": 1288,
      "तु": 1289,
      "कार्यकर्": 1290,
      "स्थानीय": 1291,
      "ताकि": 1292,
      "दाय": 1293,
      "अन्": 1294,
      "रेलवे": 1295,
      "हाल": 1296,
      "शोक": 1297,
      "दूसरे": 1298,
      "स्कृति": 1299,
      "अंतर": 1300,
      "संर": 1301,
      "मिली": 1302,
      "प्रस्ता": 1303,
      "बारह": 1304,
      "धिकार": 1305,
      "जोर": 1306,
      "उधर": 1307,
      "हत्तर": 1308,
      "वित्त": 1309,
      "बाढ़": 1310,
      "यहां": 1311,
      "समर्थ": 1312,
      "यादव": 1313,
      "बिज": 1314,
      "सुधार": 1315,
      "अंतिम": 1316,
      "भव": 1317,
      "सरा": 1318,
      "जाता": 1319,
      "वीं": 1320,
      "तृ": 1321,
      "प्रसाद": 1322,
      "पर्क": 1323,
      "गर्": 1324,
      "जीत": 1325,
      "आर्थिक": 1326,
      "रक्षा": 1327,
      "बोर्ड": 1328,
      "इन्": 1329,
      "गौर": 1330,
      "सत": 1331,
      "उपायों": 1332,
      "आदित्यनाथ": 1333,
      "नामांकन": 1334,
      "अधी": 1335,
      "खिल": 1336,
      "पदा": 1337,
      "मौजूद": 1338,
      "स्वी": 1339,
      "नए": 1340,
      "यान": 1341,
      "वर्ग": 1342,
      "ऐसे": 1343,
      "दारी": 1344,
      "वीडियो": 1345,
      "वैक्सी": 1346,
      "त्रि": 1347,
      "निपट": 1348,
      "मलव": 1349,
      "रोग": 1350,
      "कराया": 1351,
      "निगम": 1352,
      "समे": 1353,
      "खेल": 1354,
      "शाम": 1355,
      "तरा": 1356,
      "ब्र": 1357,
      "वें": 1358,
      "ौल": 1359,
      "रीय": 1360,
      "आगा": 1361,
      "स्तरीय": 1362,
      "जागरूकता": 1363,
      "इक्": 1364,
      "हान": 1365,
      "दशमलव": 1366,
      "र्फ": 1367,
      "तिया": 1368,
      "वर्षा": 1369,
      "मंजू": 1370,
      "स्कूल": 1371,
      "वह": 1372,
      "चारियों": 1373,
      "विपक्ष": 1374,
      "हुये": 1375,
      "संकल्प": 1376,
      "म्बर": 1377,
      "पूर्ति": 1378,
      "सहायता": 1379,
      "कमी": 1380,
      "पत्रकार": 1381,
      "कर्मचारियों": 1382,
      "म्प": 1383,
      "निका": 1384,
      "सिक": 1385,
      "मीर": 1386,
      "परिषद": 1387,
      "आयु": 1388,
      "ग्य": 1389,
      "करेगी": 1390,
      "बिजली": 1391,
      "सामने": 1392,
      "ठी": 1393,
      "मनाया": 1394,
      "फ्र": 1395,
      "शं": 1396,
      "उद्देश्य": 1397,
      "जागर": 1398,
      "दर्श": 1399,
      "ुओं": 1400,
      "वासियों": 1401,
      "षा": 1402,
      "ंची": 1403,
      "गंज": 1404,
      "कर्मियों": 1405,
      "शीर्ष": 1406,
      "विश्वविद्यालय": 1407,
      "पश्चि": 1408,
      "उद्योग": 1409,
      "वरण": 1410,
      "ग्यारह": 1411,
      "वहन": 1412,
      "बद": 1413,
      "भर्": 1414,
      "अदा": 1415,
      "स्थापित": 1416,
      "पचास": 1417,
      "चान": 1418,
      "हल्": 1419,
      "प्रत्य": 1420,
      "युवाओं": 1421,
      "विदेश": 1422,
      "कॉलेज": 1423,
      "रवि": 1424,
      "ेक": 1425,
      "पॉ": 1426,
      "पर्व": 1427,
      "इलाज": 1428,
      "आगामी": 1429,
      "अल": 1430,
      "कले": 1431,
      "पड़": 1432,
      "वितर": 1433,
      "जाएंगे": 1434,
      "इनमें": 1435,
      "कार्ड": 1436,
      "बढ़ाने": 1437,
      "विद्यार्थियों": 1438,
      "आगे": 1439,
      "कृत": 1440,
      "पत्रों": 1441,
      "उल्": 1442,
      "द्व": 1443,
      "शाह": 1444,
      "सदी": 1445,
      "र्स": 1446,
      "घाटन": 1447,
      "झार": 1448,
      "शही": 1449,
      "समेत": 1450,
      "जाना": 1451,
      "इलाकों": 1452,
      "उपयोग": 1453,
      "सफल": 1454,
      "प्रशिक्षण": 1455,
      "ंकि": 1456,
      "ढा": 1457,
      "लक्ष": 1458,
      "करवा": 1459,
      "लास": 1460,
      "पथ": 1461,
      "समर्थन": 1462,
      "स्ते": 1463,
      "भर्ती": 1464,
      "मंत्रि": 1465,
      "टिव": 1466,
      "गरीब": 1467,
      "बू": 1468,
      "नियंत्र": 1469,
      "पर्यटन": 1470,
      "ंति": 1471,
      "सीट": 1472,
      "मेडि": 1473,
      "गै": 1474,
      "पुरस्कार": 1475,
      "अंतर्गत": 1476,
      "साइ": 1477,
      "मीटर": 1478,
      "ख्य": 1479,
      "आय": 1480,
      "लै": 1481,
      "कीय": 1482,
      "त्री": 1483,
      "ड्": 1484,
      "मजब": 1485,
      "क्ता": 1486,
      "वाह": 1487,
      "वेदन": 1488,
      "लगाने": 1489,
      "रिक्त": 1490,
      "स्तान": 1491,
      "अस्पतालों": 1492,
      "बाल": 1493,
      "वैक्सीन": 1494,
      "लें": 1495,
      "परियोजना": 1496,
      "गतिवि": 1497,
      "प्रस्ताव": 1498,
      "प्रवेश": 1499,
      "वीट": 1500,
      "दलों": 1501,
      "लित": 1502,
      "मुद्": 1503,
      "राब": 1504,
      "जवा": 1505,
      "केश": 1506,
      "कू": 1507,
      "वाही": 1508,
      "प्रसारित": 1509,
      "ंजलि": 1510,
      "वाज": 1511,
      "पहुंचा": 1512,
      "अनुमति": 1513,
      "लिख": 1514,
      "लिखा": 1515,
      "मजबू": 1516,
      "संयुक्त": 1517,
      "अभी": 1518,
      "संघ": 1519,
      "हाथ": 1520,
      "काफी": 1521,
      "सदस्यों": 1522,
      "मॉ": 1523,
      "नेट": 1524,
      "करीब": 1525,
      "कड़ी": 1526,
      "सठ": 1527,
      "पूर": 1528,
      "आए": 1529,
      "साह": 1530,
      "शील": 1531,
      "भीर": 1532,
      "प्राथमि": 1533,
      "गार": 1534,
      "क्षकों": 1535,
      "उनका": 1536,
      "मूल्य": 1537,
      "कौ": 1538,
      "ख्": 1539,
      "सुर्खी": 1540,
      "हए": 1541,
      "वाला": 1542,
      "लपुर": 1543,
      "आग्रह": 1544,
      "आपूर्ति": 1545,
      "घंटों": 1546,
      "अधीक्षक": 1547,
      "मेंट": 1548,
      "माओ": 1549,
      "सकती": 1550,
      "रखें": 1551,
      "नरेंद्र": 1552,
      "इंडिया": 1553,
      "मार्च": 1554,
      "वादी": 1555,
      "दृ": 1556,
      "बने": 1557,
      "मंजूरी": 1558,
      "अनि": 1559,
      "बस": 1560,
      "लाव": 1561,
      "माह": 1562,
      "उपायुक्त": 1563,
      "जैसे": 1564,
      "महानि": 1565,
      "बां": 1566,
      "अदालत": 1567,
      "वार्": 1568,
      "नु": 1569,
      "सप्ता": 1570,
      "जगह": 1571,
      "बाजार": 1572,
      "श्रद्धा": 1573,
      "दह": 1574,
      "परिवहन": 1575,
      "विर": 1576,
      "रहेगा": 1577,
      "प्रतियोग": 1578,
      "विज्ञान": 1579,
      "बाहर": 1580,
      "फ्रें": 1581,
      "इक": 1582,
      "विस्त": 1583,
      "मेडिकल": 1584,
      "हना": 1585,
      "तों": 1586,
      "समू": 1587,
      "प्रकाशित": 1588,
      "तेजी": 1589,
      "रुपये": 1590,
      "बहुत": 1591,
      "खो": 1592,
      "सलाह": 1593,
      "परी": 1594,
      "शुरूआत": 1595,
      "सप्ताह": 1596,
      "कलेक्टर": 1597,
      "समु": 1598,
      "केवल": 1599,
      "मिशन": 1600,
      "निपटने": 1601,
      "कला": 1602,
      "श्रे": 1603,
      "चुके": 1604,
      "भु": 1605,
      "श्वास": 1606,
      "प्रत्याशी": 1607,
      "रांची": 1608,
      "ज़ि": 1609,
      "मता": 1610,
      "तीश": 1611,
      "कोर्ट": 1612,
      "संरक्षण": 1613,
      "प्रबंधन": 1614,
      "प्रेस": 1615,
      "तलब": 1616,
      "चं": 1617,
      "बित": 1618,
      "देशों": 1619,
      "संशो": 1620,
      "हाला": 1621,
      "टो": 1622,
      "प्रदर्शन": 1623,
      "बनाये": 1624,
      "कामना": 1625,
      "जायेंगे": 1626,
      "सीटों": 1627,
      "संगठन": 1628,
      "संस्थान": 1629,
      "संसदी": 1630,
      "रैली": 1631,
      "संसदीय": 1632,
      "बढ़ावा": 1633,
      "रोकने": 1634,
      "आत्म": 1635,
      "चै": 1636,
      "चौहान": 1637,
      "पहचान": 1638,
      "तृत्व": 1639,
      "छो": 1640,
      "वधान": 1641,
      "नेक": 1642,
      "जयपुर": 1643,
      "जमा": 1644,
      "केन्द्रों": 1645,
      "शुभार": 1646,
      "जफ्": 1647,
      "संस्था": 1648,
      "चौदह": 1649,
      "श्वर": 1650,
      "घायल": 1651,
      "जाव": 1652,
      "जफ्फर": 1653,
      "साफ": 1654,
      "द्धि": 1655,
      "वाप": 1656,
      "निगर": 1657,
      "सामान्य": 1658,
      "करेगा": 1659,
      "निगरानी": 1660,
      "टीन": 1661,
      "झारखंड": 1662,
      "आवास": 1663,
      "उद": 1664,
      "मिलने": 1665,
      "प्रतियोगिता": 1666,
      "पंजी": 1667,
      "अनेक": 1668,
      "हिन्": 1669,
      "मतदाता": 1670,
      "निर्धार": 1671,
      "आह": 1672,
      "पात": 1673,
      "प्रत्येक": 1674,
      "कार्यकर्ताओं": 1675,
      "जिलाधिकारी": 1676,
      "आये": 1677,
      "यां": 1678,
      "बाइ": 1679,
      "ल्क": 1680,
      "खरीद": 1681,
      "राजनीतिक": 1682,
      "घे": 1683,
      "मज": 1684,
      "अतिरिक्त": 1685,
      "भागी": 1686,
      "मुजफ्फर": 1687,
      "ठारह": 1688,
      "नेतृत्व": 1689,
      "म्स": 1690,
      "क्षि": 1691,
      "सोल": 1692,
      "इसकी": 1693,
      "शीर्षक": 1694,
      "सीय": 1695,
      "गंभीर": 1696,
      "नतम": 1697,
      "सदन": 1698,
      "र्जा": 1699,
      "लक्ष्य": 1700,
      "विधे": 1701,
      "सुझा": 1702,
      "सक्रि": 1703,
      "स्कर": 1704,
      "धरी": 1705,
      "जवाब": 1706,
      "निरी": 1707,
      "गौरतलब": 1708,
      "तियों": 1709,
      "बिना": 1710,
      "संबंधी": 1711,
      "धर्म": 1712,
      "राजी": 1713,
      "रोध": 1714,
      "नेताओं": 1715,
      "सुनवाई": 1716,
      "केट": 1717,
      "प्रै": 1718,
      "अमित": 1719,
      "होकर": 1720,
      "लिका": 1721,
      "नें": 1722,
      "ष्ट्रीय": 1723,
      "याचि": 1724,
      "्वज": 1725,
      "बनी": 1726,
      "ऑफ": 1727,
      "पौ": 1728,
      "तिहा": 1729,
      "बाग": 1730,
      "एल": 1731,
      "वानों": 1732,
      "ट्वीट": 1733,
      "्राष्ट्रीय": 1734,
      "पना": 1735,
      "पत्": 1736,
      "जें": 1737,
      "दिखा": 1738,
      "प्रेर": 1739,
      "पन्न": 1740,
      "जनजा": 1741,
      "विद्या": 1742,
      "विजय": 1743,
      "गंगा": 1744,
      "वीर": 1745,
      "धीश": 1746,
      "नवा": 1747,
      "विक": 1748,
      "ंडा": 1749,
      "मेले": 1750,
      "कसान": 1751,
      "याचिका": 1752,
      "चुना": 1753,
      "ट्रेन": 1754,
      "स्वच्छता": 1755,
      "न्याया": 1756,
      "दवा": 1757,
      "संपर्क": 1758,
      "तारी": 1759,
      "बधा": 1760,
      "टेल": 1761,
      "उसके": 1762,
      "मिलेगी": 1763,
      "अर": 1764,
      "रहेंगे": 1765,
      "पर्यावरण": 1766,
      "मजबूत": 1767,
      "यम": 1768,
      "ेन्द्र": 1769,
      "निश": 1770,
      "च्ची": 1771,
      "दिवसीय": 1772,
      "दीप": 1773,
      "घाट": 1774,
      "त्सव": 1775,
      "घोषित": 1776,
      "सुझाव": 1777,
      "वज": 1778,
      "वाहन": 1779,
      "कार्": 1780,
      "शिविर": 1781,
      "जनों": 1782,
      "स्टेशन": 1783,
      "ल्प": 1784,
      "बधाई": 1785,
      "यात": 1786,
      "ताल": 1787,
      "सकेंगे": 1788,
      "ऑनलाइन": 1789,
      "नीतीश": 1790,
      "ून्य": 1791,
      "डो": 1792,
      "बिक": 1793,
      "चौधरी": 1794,
      "घंटे": 1795,
      "ंती": 1796,
      "कहीं": 1797,
      "आपदा": 1798,
      "जागरूक": 1799,
      "भूमिका": 1800,
      "राजीव": 1801,
      "शून्य": 1802,
      "विकस": 1803,
      "विषय": 1804,
      "आदि": 1805,
      "अर्पित": 1806,
      "न्यूनतम": 1807,
      "फसल": 1808,
      "विकसित": 1809,
      "बारी": 1810,
      "आवश्यकता": 1811,
      "कांश": 1812,
      "कंप": 1813,
      "अट्": 1814,
      "एक्स": 1815,
      "हाई": 1816,
      "बरत": 1817,
      "एनडी": 1818,
      "जागरण": 1819,
      "सक्रिय": 1820,
      "चलते": 1821,
      "हिस्सों": 1822,
      "निर्धारित": 1823,
      "दूसरी": 1824,
      "नियंत्रण": 1825,
      "गह": 1826,
      "छात्रों": 1827,
      "सित": 1828,
      "पूर्वी": 1829,
      "मंत्रिमंडल": 1830,
      "हासिल": 1831,
      "फैस": 1832,
      "पटेल": 1833,
      "प्रकार": 1834,
      "अशोक": 1835,
      "बल्": 1836,
      "निधन": 1837,
      "शिक्षकों": 1838,
      "स्तु": 1839,
      "कार्यक्रमों": 1840,
      "सूची": 1841,
      "तकनी": 1842,
      "मानव": 1843,
      "उपचार": 1844,
      "घरों": 1845,
      "भ्र": 1846,
      "र्श": 1847,
      "मुजफ्फरपुर": 1848,
      "अग्र": 1849,
      "पच्ची": 1850,
      "त्मक": 1851,
      "डिग्री": 1852,
      "प्रैल": 1853,
      "अप्रैल": 1854,
      "पच्चीस": 1855,
      "जुड़े": 1856,
      "विधेयक": 1857,
      "जयंती": 1858,
      "मिलेगा": 1859,
      "शहीद": 1860,
      "ंतीस": 1861,
      "एच": 1862,
      "चयन": 1863,
      "निदेशक": 1864,
      "पीठ": 1865,
      "रामद": 1866,
      "मैदान": 1867,
      "मृत्य": 1868,
      "नल": 1869,
      "बड़े": 1870,
      "स्कूलों": 1871,
      "वितरण": 1872,
      "गौ": 1873,
      "बरामद": 1874,
      "तेरह": 1875,
      "शुल्क": 1876,
      "सेंटर": 1877,
      "नुकसान": 1878,
      "कोविंद": 1879,
      "कही": 1880,
      "रं": 1881,
      "रम": 1882,
      "शिका": 1883,
      "चुकी": 1884,
      "लोत": 1885,
      "देशिक": 1886,
      "वर्त": 1887,
      "पूजा": 1888,
      "प्रादेशिक": 1889,
      "संशोधन": 1890,
      "चले": 1891,
      "धु": 1892,
      "मिला": 1893,
      "हतिया": 1894,
      "सत्ता": 1895,
      "मनो": 1896,
      "ंप": 1897,
      "तौर": 1898,
      "अधिकांश": 1899,
      "पार्": 1900,
      "निरीक्षण": 1901,
      "न्यायाधीश": 1902,
      "रोह": 1903,
      "ंट": 1904,
      "जिम्": 1905,
      "प्रमुखता": 1906,
      "सम्मानित": 1907,
      "अंतर्राष्ट्रीय": 1908,
      "विद्यालयों": 1909,
      "डर": 1910,
      "संस्कृति": 1911,
      "जिसके": 1912,
      "कार्यों": 1913,
      "ढ़ी": 1914,
      "उद्घाटन": 1915,
      "पत्रकारों": 1916,
      "लगे": 1917,
      "प्रयोग": 1918,
      "िकी": 1919,
      "ुरु": 1920,
      "जरिए": 1921,
      "टाइ": 1922,
      "आग": 1923,
      "लड़": 1924,
      "प्रखंड": 1925,
      "मेर": 1926,
      "आयुक्त": 1927,
      "शहरी": 1928,
      "ठंड": 1929,
      "स्थापना": 1930,
      "प्राथमिकता": 1931,
      "अच्छ": 1932,
      "पुरा": 1933,
      "सोशल": 1934,
      "आसान": 1935,
      "महानिदेशक": 1936,
      "खण्ड": 1937,
      "लने": 1938,
      "वक्ता": 1939,
      "देवी": 1940,
      "साय": 1941,
      "सोलह": 1942,
      "गहलोत": 1943,
      "पन्द्र": 1944,
      "शराब": 1945,
      "हत्या": 1946,
      "निवेश": 1947,
      "योगदान": 1948,
      "जुड़ी": 1949,
      "उत्पादन": 1950,
      "मण": 1951,
      "वहां": 1952,
      "पन्द्रह": 1953,
      "नै": 1954,
      "लान": 1955,
      "हवा": 1956,
      "खाद्य": 1957,
      "व्यापक": 1958,
      "आवेदन": 1959,
      "हल्की": 1960,
      "तय": 1961,
      "नारा": 1962,
      "समझ": 1963,
      "बद्ध": 1964,
      "वाना": 1965,
      "्यास": 1966,
      "प्रावधान": 1967,
      "स्वतंत्र": 1968,
      "इस्ते": 1969,
      "जनवरी": 1970,
      "कीस": 1971,
      "पदाधिकारी": 1972,
      "अर्थ": 1973,
      "जवानों": 1974,
      "लेख": 1975,
      "इस्तेमाल": 1976,
      "नान": 1977,
      "शांति": 1978,
      "तत्": 1979,
      "परिसर": 1980,
      "धिकारियों": 1981,
      "ूट": 1982,
      "र्जी": 1983,
      "हई": 1984,
      "ूं": 1985,
      "मुक्त": 1986,
      "जनसभा": 1987,
      "शिकायत": 1988,
      "सीबी": 1989,
      "दोलन": 1990,
      "मृत्यु": 1991,
      "ंगी": 1992,
      "ईट": 1993,
      "निर्भर": 1994,
      "सार्वज": 1995,
      "बढ़कर": 1996,
      "सुरेश": 1997,
      "हालांकि": 1998,
      "सार्वजनिक": 1999,
      "यं": 2000,
      "इक्कीस": 2001,
      "मतदाताओं": 2002,
      "गठबंधन": 2003,
      "अड़": 2004,
      "हाद": 2005,
      "न्व": 2006,
      "भेज": 2007,
      "मजदूर": 2008,
      "बड़ा": 2009,
      "चारी": 2010,
      "वनी": 2011,
      "ढ़े": 2012,
      "गतिविधियों": 2013,
      "आन": 2014,
      "डू": 2015,
      "बढ़ो": 2016,
      "वैज्ञान": 2017,
      "प्रभावी": 2018,
      "ेय": 2019,
      "कारा": 2020,
      "तैना": 2021,
      "जिम्मे": 2022,
      "एहतिया": 2023,
      "ऑक्सी": 2024,
      "हिस्सा": 2025,
      "बयान": 2026,
      "स्थल": 2027,
      "नागरिकों": 2028,
      "लौ": 2029,
      "मुख्यालय": 2030,
      "जरिये": 2031,
      "राग": 2032,
      "मुं": 2033,
      "प्ला": 2034,
      "रावत": 2035,
      "बघे": 2036,
      "त्रियों": 2037,
      "णाम": 2038,
      "गतान": 2039,
      "पहला": 2040,
      "सर्वे": 2041,
      "रहें": 2042,
      "होना": 2043,
      "पोषण": 2044,
      "पंजा": 2045,
      "बदलाव": 2046,
      "वर्तमान": 2047,
      "कात": 2048,
      "चुनावी": 2049,
      "चू": 2050,
      "्यों": 2051,
      "संसा": 2052,
      "श्रद्वा": 2053,
      "पश्चिम": 2054,
      "सराय": 2055,
      "ऊर्जा": 2056,
      "निर्देशों": 2057,
      "गल": 2058,
      "भाषा": 2059,
      "मुला": 2060,
      "समाधान": 2061,
      "फैसले": 2062,
      "बघेल": 2063,
      "स्टर": 2064,
      "कार्यशाला": 2065,
      "परिणाम": 2066,
      "प्रभारी": 2067,
      "क्षमता": 2068,
      "व्यापार": 2069,
      "विस्तार": 2070,
      "बल्कि": 2071,
      "प्रणा": 2072,
      "राजस्थान": 2073,
      "कश्": 2074,
      "कार्यवाही": 2075,
      "ंडी": 2076,
      "जलस्तर": 2077,
      "अपर": 2078,
      "टै": 2079,
      "संगठ": 2080,
      "पुष्टि": 2081,
      "देशभर": 2082,
      "एनडीए": 2083,
      "प्रतिबंध": 2084,
      "अंक": 2085,
      "वाहनों": 2086,
      "धो": 2087,
      "काब": 2088,
      "देनजर": 2089,
      "साझा": 2090,
      "पहल": 2091,
      "बाव": 2092,
      "लिखता": 2093,
      "बर्फ": 2094,
      "जाम": 2095,
      "साढ़े": 2096,
      "मामला": 2097,
      "प्रबंध": 2098,
      "मिकों": 2099,
      "ऑक्सीजन": 2100,
      "अमर": 2101,
      "नागरिक": 2102,
      "फाई": 2103,
      "उम": 2104,
      "पंजाब": 2105,
      "यें": 2106,
      "दुनिया": 2107,
      "समस्याओं": 2108,
      "चलने": 2109,
      "वृद्धि": 2110,
      "प्री": 2111,
      "शासित": 2112,
      "ढ़ा": 2113,
      "रहेगी": 2114,
      "गांवों": 2115,
      "वापस": 2116,
      "प्रणाली": 2117,
      "खोल": 2118,
      "मंडी": 2119,
      "उपस्थित": 2120,
      "अपराधियों": 2121,
      "मुलाकात": 2122,
      "जम्": 2123,
      "दाखिल": 2124,
      "विभागों": 2125,
      "ज्ञा": 2126,
      "भंगा": 2127,
      "तीसर": 2128,
      "जनपद": 2129,
      "युव": 2130,
      "चलाया": 2131,
      "मद्": 2132,
      "दुर्घटना": 2133,
      "अटल": 2134,
      "वारी": 2135,
      "मोबाइ": 2136,
      "वाड़ा": 2137,
      "द्वार": 2138,
      "आंदोलन": 2139,
      "कश्मीर": 2140,
      "मोबाइल": 2141,
      "सश": 2142,
      "र्ति": 2143,
      "विरोध": 2144,
      "यात्रियों": 2145,
      "प्रदर्श": 2146,
      "श्रम": 2147,
      "कर्मचारी": 2148,
      "सत्रह": 2149,
      "वेद": 2150,
      "अख": 2151,
      "मुकाब": 2152,
      "रोड": 2153,
      "शिक्षक": 2154,
      "पुन": 2155,
      "विशेषज्ञ": 2156,
      "दरभंगा": 2157,
      "ंबर": 2158,
      "नीय": 2159,
      "ूबर": 2160,
      "प्रभाव": 2161,
      "महारा": 2162,
      "संसद": 2163,
      "मिश्र": 2164,
      "भार्": 2165,
      "सून": 2166,
      "एक्सप्रेस": 2167,
      "ऐप": 2168,
      "टक": 2169,
      "वार्य": 2170,
      "ल्ड": 2171,
      "स्पष्ट": 2172,
      "शुभारंभ": 2173,
      "अगर": 2174,
      "अनिवार्य": 2175,
      "खर": 2176,
      "संभव": 2177,
      "इसलिए": 2178,
      "शपथ": 2179,
      "ॉल": 2180,
      "करता": 2181,
      "ड़ियों": 2182,
      "कौशल": 2183,
      "होता": 2184,
      "अंत": 2185,
      "उत्तरा": 2186,
      "वजह": 2187,
      "हमें": 2188,
      "परियोजनाओं": 2189,
      "सम्बोधित": 2190,
      "भकामना": 2191,
      "न्द": 2192,
      "जताई": 2193,
      "किलो": 2194,
      "लाईन": 2195,
      "ऋण": 2196,
      "यण": 2197,
      "प्रवासी": 2198,
      "तिर": 2199,
      "एसटी": 2200,
      "अखबार": 2201,
      "लिक": 2202,
      "बिलास": 2203,
      "भागों": 2204,
      "थाम": 2205,
      "रवाना": 2206,
      "वर्तन": 2207,
      "प्रतिनिधि": 2208,
      "पें": 2209,
      "विश्वास": 2210,
      "भास्कर": 2211,
      "क्षेत्रीय": 2212,
      "संचालित": 2213,
      "लेंगे": 2214,
      "हर्ष": 2215,
      "नाय": 2216,
      "लाया": 2217,
      "आतंक": 2218,
      "गणना": 2219,
      "बच": 2220,
      "लक": 2221,
      "कार्यो": 2222,
      "नियमों": 2223,
      "रल": 2224,
      "भाई": 2225,
      "पीड़": 2226,
      "रोकथाम": 2227,
      "िज": 2228,
      "घन": 2229,
      "मई": 2230,
      "महो": 2231,
      "स्मार": 2232,
      "परे": 2233,
      "संकट": 2234,
      "स्वागत": 2235,
      "ठाक्र": 2236,
      "शै": 2237,
      "हटा": 2238,
      "सेल्": 2239,
      "करके": 2240,
      "तरीके": 2241,
      "मध्यप्रदेश": 2242,
      "पंच": 2243,
      "मक": 2244,
      "किल": 2245,
      "क्वार": 2246,
      "हिं": 2247,
      "संस्थानों": 2248,
      "उपाय": 2249,
      "फाय": 2250,
      "उसे": 2251,
      "मती": 2252,
      "इंटर": 2253,
      "निष्": 2254,
      "श्रमिकों": 2255,
      "छात्रा": 2256,
      "जवान": 2257,
      "यस": 2258,
      "चुका": 2259,
      "नियमित": 2260,
      "परिवारों": 2261,
      "चाई": 2262,
      "उम्मीदवारों": 2263,
      "प्रस्तु": 2264,
      "सैनि": 2265,
      "बनने": 2266,
      "जमी": 2267,
      "टीके": 2268,
      "रामनाथ": 2269,
      "खेती": 2270,
      "ंतालीस": 2271,
      "गज": 2272,
      "बलों": 2273,
      "राठ": 2274,
      "होते": 2275,
      "धिक": 2276,
      "धार्": 2277,
      "जैन": 2278,
      "ंगाबाद": 2279,
      "ठीक": 2280,
      "सख्": 2281,
      "णव": 2282,
      "हवाई": 2283,
      "पारण": 2284,
      "मंत्रियों": 2285,
      "होम": 2286,
      "द्द": 2287,
      "चुनौ": 2288,
      "ऊपर": 2289,
      "म्ख्य": 2290,
      "पहर": 2291,
      "आत्मनिर्भर": 2292,
      "वर्धन": 2293,
      "जम्मू": 2294,
      "आहवान": 2295,
      "मद्देनजर": 2296,
      "जन्": 2297,
      "सवाल": 2298,
      "स्ती": 2299,
      "दोपहर": 2300,
      "फिल्": 2301,
      "महोत्सव": 2302,
      "जिटिव": 2303,
      "दिव्या": 2304,
      "उल्लेख": 2305,
      "मशी": 2306,
      "ेंट": 2307,
      "वादियों": 2308,
      "स्वयं": 2309,
      "पता": 2310,
      "सेवाओं": 2311,
      "असर": 2312,
      "नेशन": 2313,
      "प्रमाण": 2314,
      "प्रगति": 2315,
      "वोट": 2316,
      "सजा": 2317,
      "काली": 2318,
      "स्त्र": 2319,
      "चालीस": 2320,
      "सफलता": 2321,
      "ानवे": 2322,
      "वेब": 2323,
      "अवै": 2324,
      "स्थग": 2325,
      "जोड़": 2326,
      "कमल": 2327,
      "उच्चतम": 2328,
      "गैर": 2329,
      "एहतियाती": 2330,
      "आवा": 2331,
      "यकों": 2332,
      "अवधि": 2333,
      "जुलाई": 2334,
      "प्रतिनिधियों": 2335,
      "वायु": 2336,
      "त्सा": 2337,
      "पहुंचे": 2338,
      "बिलासपुर": 2339,
      "आया": 2340,
      "जित": 2341,
      "जाकर": 2342,
      "भगवान": 2343,
      "विष्य": 2344,
      "फसलों": 2345,
      "बर्फबारी": 2346,
      "आधारित": 2347,
      "नागरिकता": 2348,
      "दिव्यांग": 2349,
      "मध्यम": 2350,
      "सियस": 2351,
      "उत्पाद": 2352,
      "प्रोत्सा": 2353,
      "सुर्ख": 2354,
      "नार": 2355,
      "हये": 2356,
      "किंग": 2357,
      "प्रवक्ता": 2358,
      "नारायण": 2359,
      "संगठनों": 2360,
      "अवैध": 2361,
      "म्भ": 2362,
      "पंद्र": 2363,
      "पाठ": 2364,
      "माना": 2365,
      "ग्रहण": 2366,
      "कानू": 2367,
      "सराहना": 2368,
      "लाभार्": 2369,
      "संचालन": 2370,
      "बढ़ोतरी": 2371,
      "पंद्रह": 2372,
      "न्य": 2373,
      "भविष्य": 2374,
      "प्रि": 2375,
      "जाती": 2376,
      "तिथि": 2377,
      "भागलपुर": 2378,
      "टेस्ट": 2379,
      "ड़ेकर": 2380,
      "सांस्कृति": 2381,
      "स्तक": 2382,
      "क्शन": 2383,
      "त्मा": 2384,
      "एजें": 2385,
      "फ्रेंसिंग": 2386,
      "जावड़ेकर": 2387,
      "सांस्कृतिक": 2388,
      "तला": 2389,
      "देना": 2390,
      "क्यों": 2391,
      "खार": 2392,
      "चंद्र": 2393,
      "दक्षि": 2394,
      "पच": 2395,
      "रिंग": 2396,
      "अक्ट": 2397,
      "ऐसी": 2398,
      "गड़": 2399,
      "भीड़": 2400,
      "कक्षा": 2401,
      "वित्": 2402,
      "लाह": 2403,
      "माता": 2404,
      "मंड": 2405,
      "जुर्": 2406,
      "कॉन्": 2407,
      "देहरा": 2408,
      "प्रदेशों": 2409,
      "सेल्सियस": 2410,
      "लेटि": 2411,
      "च्छा": 2412,
      "इलाके": 2413,
      "प्रयासों": 2414,
      "जनजातीय": 2415,
      "अक्टूबर": 2416,
      "उचित": 2417,
      "ऐसा": 2418,
      "पाकि": 2419,
      "बाईस": 2420,
      "मेला": 2421,
      "तारीख": 2422,
      "कत": 2423,
      "णसी": 2424,
      "तालीस": 2425,
      "सर्व": 2426,
      "तैयारियां": 2427,
      "सड़कों": 2428,
      "वित्तीय": 2429,
      "ष्ण": 2430,
      "तैयारियों": 2431,
      "छि": 2432,
      "नया": 2433,
      "प्रौ": 2434,
      "परिवर्तन": 2435,
      "सफाई": 2436,
      "संधान": 2437,
      "गुरू": 2438,
      "पन्": 2439,
      "अधिनियम": 2440,
      "वाराणसी": 2441,
      "रखी": 2442,
      "श्रद्वाल": 2443,
      "शियों": 2444,
      "गोरख": 2445,
      "अफ": 2446,
      "स्पे": 2447,
      "मूर्ति": 2448,
      "पॉजिटिव": 2449,
      "उज्": 2450,
      "पड़े": 2451,
      "प्रताप": 2452,
      "होती": 2453,
      "हिम": 2454,
      "गठित": 2455,
      "समान": 2456,
      "श्रीमती": 2457,
      "धिकरण": 2458,
      "राज्यसभा": 2459,
      "आरोपी": 2460,
      "घु": 2461,
      "पशु": 2462,
      "ताबिक": 2463,
      "माने": 2464,
      "शोर": 2465,
      "अगस्त": 2466,
      "हमारी": 2467,
      "िंग": 2468,
      "रिक": 2469,
      "भूपेश": 2470,
      "इका": 2471,
      "टिक": 2472,
      "बदल": 2473,
      "देर": 2474,
      "संविधान": 2475,
      "अच्छी": 2476,
      "संसाधन": 2477,
      "तू": 2478,
      "परीक्षण": 2479,
      "सही": 2480,
      "सुना": 2481,
      "बारा": 2482,
      "जैसी": 2483,
      "द्योगिकी": 2484,
      "दृष्टि": 2485,
      "विमान": 2486,
      "मुताबिक": 2487,
      "सील": 2488,
      "बादल": 2489,
      "स्वरूप": 2490,
      "भुगतान": 2491,
      "अर्थव्यवस्था": 2492,
      "रखे": 2493,
      "आसपास": 2494,
      "फिल्म": 2495,
      "चंद": 2496,
      "टने": 2497,
      "समर्": 2498,
      "चाह": 2499,
      "गिराव": 2500,
      "गिरावट": 2501,
      "तरे": 2502,
      "यारी": 2503,
      "प्राधिकरण": 2504,
      "गोवि": 2505,
      "सुविधाओं": 2506,
      "लिंग": 2507,
      "रेन": 2508,
      "मोह": 2509,
      "कुल्": 2510,
      "णवत्ता": 2511,
      "अध्या": 2512,
      "गर्मी": 2513,
      "हिक": 2514,
      "युक्ति": 2515,
      "पेय": 2516,
      "फॉ": 2517,
      "वानी": 2518,
      "बालिका": 2519,
      "मैच": 2520,
      "व्यक्तियों": 2521,
      "पंचायतों": 2522,
      "अपराध": 2523,
      "रज": 2524,
      "समी": 2525,
      "पहुंचाने": 2526,
      "तैनात": 2527,
      "स्थगित": 2528,
      "राशन": 2529,
      "संजय": 2530,
      "हल": 2531,
      "पर्याप्त": 2532,
      "समूह": 2533,
      "तिहासिक": 2534,
      "धार्मिक": 2535,
      "ध्र": 2536,
      "कारो": 2537,
      "रिकॉ": 2538,
      "छोड़": 2539,
      "धू": 2540,
      "सोलन": 2541,
      "खबरों": 2542,
      "वार्ता": 2543,
      "ंदा": 2544,
      "आचार": 2545,
      "देष": 2546,
      "बंदी": 2547,
      "तैयारी": 2548,
      "उद्य": 2549,
      "एयर": 2550,
      "परेश": 2551,
      "सेवाएं": 2552,
      "जद": 2553,
      "जेल": 2554,
      "प्रौद्योगिकी": 2555,
      "अहम": 2556,
      "प्रश्": 2557,
      "वैश्": 2558,
      "शुभकामना": 2559,
      "मजदूरों": 2560,
      "पुरी": 2561,
      "शहरों": 2562,
      "जंग": 2563,
      "रिज": 2564,
      "शंकर": 2565,
      "पाकिस्तान": 2566,
      "निंग": 2567,
      "सुविधाएं": 2568,
      "संवाददाताओं": 2569,
      "ाचार": 2570,
      "र्च": 2571,
      "लियों": 2572,
      "पुल": 2573,
      "ड़ाई": 2574,
      "इंदौर": 2575,
      "रिकॉर्ड": 2576,
      "बिंद": 2577,
      "दून": 2578,
      "आईटी": 2579,
      "फोन": 2580,
      "थम": 2581,
      "सूचित": 2582,
      "जून": 2583,
      "चीन": 2584,
      "माओवादी": 2585,
      "वैश्विक": 2586,
      "बढ": 2587,
      "भारती": 2588,
      "अनुसंधान": 2589,
      "ट्टी": 2590,
      "अनुराग": 2591,
      "प्रेम": 2592,
      "दौरा": 2593,
      "संस्थाओं": 2594,
      "ोध": 2595,
      "क्ल": 2596,
      "त्रों": 2597,
      "शाली": 2598,
      "दोष": 2599,
      "पश्चिमी": 2600,
      "खोलने": 2601,
      "लाहौल": 2602,
      "नदियों": 2603,
      "मां": 2604,
      "ऐतिहासिक": 2605,
      "चन्द्र": 2606,
      "सकेगा": 2607,
      "मंदिरों": 2608,
      "पंजीकरण": 2609,
      "पेयजल": 2610,
      "बन्": 2611,
      "स्र": 2612,
      "्यालयों": 2613,
      "बीमारी": 2614,
      "परिजनों": 2615,
      "छूट": 2616,
      "हमीर": 2617,
      "तायात": 2618,
      "नियों": 2619,
      "निकल": 2620,
      "मंच": 2621,
      "हिन्दु": 2622,
      "तत्काल": 2623,
      "सब्": 2624,
      "हड़": 2625,
      "हूं": 2626,
      "यातायात": 2627,
      "साठ": 2628,
      "संक्रमितों": 2629,
      "कुल्लू": 2630,
      "जाति": 2631,
      "सीता": 2632,
      "सिलसि": 2633,
      "म्बा": 2634,
      "सौं": 2635,
      "नियादी": 2636,
      "लंबित": 2637,
      "जमीन": 2638,
      "स्वर्": 2639,
      "नियुक्ति": 2640,
      "योध्या": 2641,
      "बरतने": 2642,
      "सीबीआई": 2643,
      "कानों": 2644,
      "सामग्री": 2645,
      "प्रत्याशियों": 2646,
      "श्रद्वांजलि": 2647,
      "तीसरे": 2648,
      "प्रशास": 2649,
      "ट्रा": 2650,
      "ज़िले": 2651,
      "हमीरपुर": 2652,
      "अरु": 2653,
      "बनाई": 2654,
      "पोर्टल": 2655,
      "रंजन": 2656,
      "एम्स": 2657,
      "ान्": 2658,
      "बुलेटि": 2659,
      "अयोध्या": 2660,
      "हरि": 2661,
      "सिटी": 2662,
      "जोन": 2663,
      "गोपाल": 2664,
      "साइट": 2665,
      "पेंशन": 2666,
      "संत": 2667,
      "डिजि": 2668,
      "मैं": 2669,
      "सिर्फ": 2670,
      "उपभो": 2671,
      "जुट": 2672,
      "पीड़ित": 2673,
      "जब्": 2674,
      "सन": 2675,
      "जिन्": 2676,
      "अधिकतम": 2677,
      "फरवरी": 2678,
      "रोहता": 2679,
      "मुंह": 2680,
      "हमे": 2681,
      "देकर": 2682,
      "देहरादून": 2683,
      "लाइ": 2684,
      "अधिसूचना": 2685,
      "मोहन": 2686,
      "प्रेरित": 2687,
      "अनुर": 2688,
      "महात्मा": 2689,
      "आरक्षण": 2690,
      "छिया": 2691,
      "पेट": 2692,
      "भेजा": 2693,
      "करवाने": 2694,
      "क्योंकि": 2695,
      "सतर्": 2696,
      "सामना": 2697,
      "स्वतंत्रता": 2698,
      "छु": 2699,
      "ढंग": 2700,
      "यदि": 2701,
      "राजस्व": 2702,
      "तेईस": 2703,
      "सहायक": 2704,
      "रूक": 2705,
      "बंगा": 2706,
      "टिंग": 2707,
      "जिम्मेदारी": 2708,
      "ंदी": 2709,
      "खतरे": 2710,
      "ण्": 2711,
      "जाला": 2712,
      "ड़ों": 2713,
      "लगाए": 2714,
      "ट्रो": 2715,
      "न्यायमूर्ति": 2716,
      "इकतीस": 2717,
      "सुशील": 2718,
      "कराई": 2719,
      "ार्थ": 2720,
      "निशान": 2721,
      "ड्ड": 2722,
      "तिक": 2723,
      "मोटर": 2724,
      "ंडार": 2725,
      "गुणवत्ता": 2726,
      "हारी": 2727,
      "हुल": 2728,
      "परिचा": 2729,
      "श्रो": 2730,
      "द्योगिक": 2731,
      "शिवराज": 2732,
      "ड्डा": 2733,
      "म्ख्यमंत्री": 2734,
      "गोरखपुर": 2735,
      "पात्र": 2736,
      "स्थलों": 2737,
      "जीएसटी": 2738,
      "रखते": 2739,
      "तोमर": 2740,
      "माओवादियों": 2741,
      "शुरु": 2742,
      "वालि": 2743,
      "जिस्ट": 2744,
      "सरी": 2745,
      "चिन्": 2746,
      "धाम": 2747,
      "सिंचाई": 2748,
      "अर्चना": 2749,
      "कालीन": 2750,
      "उजाला": 2751,
      "द्वाज": 2752,
      "कांगड़ा": 2753,
      "बच्चे": 2754,
      "चेता": 2755,
      "जन्म": 2756,
      "र्व": 2757,
      "मिन": 2758,
      "सिद्ध": 2759,
      "बीमा": 2760,
      "ट्रोल": 2761,
      "मुद्दों": 2762,
      "जदयू": 2763,
      "अनुरोध": 2764,
      "छब्": 2765,
      "वत": 2766,
      "लेट": 2767,
      "बोल": 2768,
      "पदाधिकारियों": 2769,
      "अठारह": 2770,
      "औद्योगिक": 2771,
      "बैं": 2772,
      "तकनीकी": 2773,
      "छब्बीस": 2774,
      "रेडियो": 2775,
      "भारद्वाज": 2776,
      "मिलकर": 2777,
      "पराम": 2778,
      "टेड": 2779,
      "चेतावनी": 2780,
      "मण्ड": 2781,
      "रेलगा": 2782,
      "लोकार्": 2783,
      "मृत": 2784,
      "शब्": 2785,
      "पारित": 2786,
      "गृहमंत्री": 2787,
      "र्य": 2788,
      "नाइन्": 2789,
      "पाए": 2790,
      "डॉट": 2791,
      "जब्त": 2792,
      "हमेशा": 2793,
      "सत्तर": 2794,
      "कीमत": 2795,
      "काने": 2796,
      "राजकीय": 2797,
      "इंत": 2798,
      "ौन": 2799,
      "प्रार": 2800,
      "क्रा": 2801,
      "सम्पर्क": 2802,
      "हमले": 2803,
      "उठाए": 2804,
      "मौजूदा": 2805,
      "रोगियों": 2806,
      "दक्षिण": 2807,
      "खर्च": 2808,
      "रद्द": 2809,
      "राजद": 2810,
      "बढ़ने": 2811,
      "छोटे": 2812,
      "ड्र": 2813,
      "भीतर": 2814,
      "दिव्य": 2815,
      "आपका": 2816,
      "प्रभात": 2817,
      "घ्र": 2818,
      "चो": 2819,
      "रंग": 2820,
      "ानगर": 2821,
      "लोकार्पण": 2822,
      "गढ": 2823,
      "लगी": 2824,
      "विवाद": 2825,
      "लागत": 2826,
      "नियुक्त": 2827,
      "बढ़ते": 2828,
      "उपाध्यक्ष": 2829,
      "गरीबों": 2830,
      "गैस": 2831,
      "परामर्श": 2832,
      "आजा": 2833,
      "ठे": 2834,
      "बर्": 2835,
      "सागर": 2836,
      "बिनेट": 2837,
      "मतगणना": 2838,
      "गोयल": 2839,
      "टू": 2840,
      "परा": 2841,
      "ानु": 2842,
      "राहुल": 2843,
      "भागीदारी": 2844,
      "अग्रवाल": 2845,
      "प्रदर्शनी": 2846,
      "विवे": 2847,
      "घाटी": 2848,
      "डिजिटल": 2849,
      "प्रथम": 2850,
      "न्हा": 2851,
      "राजनाथ": 2852,
      "ुक": 2853,
      "राजमार्ग": 2854,
      "कर्मी": 2855,
      "पैदा": 2856,
      "सर्वो": 2857,
      "श्रद्धांजलि": 2858,
      "वेबसाइट": 2859,
      "नाइन्टीन": 2860,
      "ब्यू": 2861,
      "एसपी": 2862,
      "चलाने": 2863,
      "अट्ठारह": 2864,
      "कारात्मक": 2865,
      "बंगाल": 2866,
      "कमे": 2867,
      "वेज": 2868,
      "किशन": 2869,
      "दिग्": 2870,
      "बेगू": 2871,
      "राठौर": 2872,
      "आदर्श": 2873,
      "कटि": 2874,
      "सल": 2875,
      "निधि": 2876,
      "उत्सव": 2877,
      "जायजा": 2878,
      "कंवर": 2879,
      "अखबारों": 2880,
      "ंसी": 2881,
      "उड़": 2882,
      "कमा": 2883,
      "कश्य": 2884,
      "विल": 2885,
      "निकाली": 2886,
      "बेगूसराय": 2887,
      "कहना": 2888,
      "बया": 2889,
      "ौरा": 2890,
      "ौर्य": 2891,
      "पीएम": 2892,
      "शंका": 2893,
      "कश्यप": 2894,
      "नम्बर": 2895,
      "पल": 2896,
      "निरा": 2897,
      "एकता": 2898,
      "सोम": 2899,
      "पांड": 2900,
      "कमलनाथ": 2901,
      "हिन्दुस्तान": 2902,
      "जला": 2903,
      "बई": 2904,
      "सरकारों": 2905,
      "हिता": 2906,
      "दूसरा": 2907,
      "जबलपुर": 2908,
      "छापे": 2909,
      "नक्स": 2910,
      "लगाई": 2911,
      "विधायकों": 2912,
      "समझौ": 2913,
      "लाभार्थियों": 2914,
      "वालियर": 2915,
      "यती": 2916,
      "डियम": 2917,
      "मृतक": 2918,
      "ग्वालियर": 2919,
      "न्यूज": 2920,
      "चंपारण": 2921,
      "प्रश्न": 2922,
      "परिचालन": 2923,
      "फार्": 2924,
      "रानी": 2925,
      "क्षर": 2926,
      "वेतन": 2927,
      "अन्तर्गत": 2928,
      "महाराष्ट": 2929,
      "सिन्हा": 2930,
      "णाचल": 2931,
      "मुद्दे": 2932,
      "आशा": 2933,
      "कार्यकाल": 2934,
      "बीमार": 2935,
      "ष्टाचार": 2936,
      "गोविंद": 2937,
      "महाराष्ट्र": 2938,
      "सेन": 2939,
      "सोरेन": 2940,
      "उसकी": 2941,
      "ग्रामीणों": 2942,
      "समस्ती": 2943,
      "उत्पादों": 2944,
      "आभार": 2945,
      "फं": 2946,
      "पाये": 2947,
      "प्रतिबद्ध": 2948,
      "विद्यु": 2949,
      "शब्द": 2950,
      "बुनियादी": 2951,
      "श्रेष्ठ": 2952,
      "प्रशासनिक": 2953,
      "मिनट": 2954,
      "नमू": 2955,
      "यंत्र": 2956,
      "स्पी": 2957,
      "संस्": 2958,
      "संभा": 2959,
      "कम्प": 2960,
      "शिलान": 2961,
      "वार्ड": 2962,
      "मेश": 2963,
      "ठाईस": 2964,
      "बोधन": 2965,
      "श्रेणी": 2966,
      "शुभकामनाएं": 2967,
      "ऊना": 2968,
      "हॉ": 2969,
      "किशोर": 2970,
      "दीन": 2971,
      "चित्र": 2972,
      "टाई": 2973,
      "दौरे": 2974,
      "युवक": 2975,
      "किलोमीटर": 2976,
      "नायडू": 2977,
      "बेड": 2978,
      "शीघ्र": 2979,
      "कैबिनेट": 2980,
      "ट्स": 2981,
      "जरात": 2982,
      "नेपाल": 2983,
      "वां": 2984,
      "जाते": 2985,
      "लीय": 2986,
      "दास": 2987,
      "फ्रेंस": 2988,
      "अंग": 2989,
      "आंग": 2990,
      "पड़ा": 2991,
      "रें": 2992,
      "वस्त": 2993,
      "रात्रि": 2994,
      "क्षति": 2995,
      "भोजन": 2996,
      "विपक्षी": 2997,
      "लैंड": 2998,
      "बुलेटिन": 2999,
      "शिलान्यास": 3000,
      "सकारात्मक": 3001,
      "राजना": 3002,
      "्टर": 3003,
      "ट्रेनों": 3004,
      "दायिक": 3005,
      "एप": 3006,
      "निभा": 3007,
      "तरफ": 3008,
      "वर्क": 3009,
      "जानी": 3010,
      "वर्षो": 3011,
      "ट्रक": 3012,
      "सर्वेक्षण": 3013,
      "व्र": 3014,
      "संहिता": 3015,
      "वर्मा": 3016,
      "कृष्ण": 3017,
      "लंघन": 3018,
      "व्": 3019,
      "समृ": 3020,
      "चिंता": 3021,
      "पूर्वक": 3022,
      "कार्यकर्ता": 3023,
      "उदघाटन": 3024,
      "होली": 3025,
      "होंगी": 3026,
      "प्रयाग": 3027,
      "जिनमें": 3028,
      "क्रिकेट": 3029,
      "जताया": 3030,
      "ज़िला": 3031,
      "फान": 3032,
      "साबित": 3033,
      "प्रदेशवासियों": 3034,
      "रविवार": 3035,
      "बांध": 3036,
      "समुदाय": 3037,
      "अस्": 3038,
      "दया": 3039,
      "धियां": 3040,
      "टिस": 3041,
      "घटनाओं": 3042,
      "उल्लंघन": 3043,
      "आतंकवाद": 3044,
      "हथि": 3045,
      "विम": 3046,
      "प्रदेशभर": 3047,
      "प्ति": 3048,
      "वैज्ञानिक": 3049,
      "प्रस्तुत": 3050,
      "बढा": 3051,
      "लना": 3052,
      "्यो": 3053,
      "माध्य": 3054,
      "समन्व": 3055,
      "दूरदर्शन": 3056,
      "रिजर्व": 3057,
      "हड़ताल": 3058,
      "कटिहार": 3059,
      "इले": 3060,
      "वली": 3061,
      "परमार": 3062,
      "स्टार": 3063,
      "पिता": 3064,
      "आयुर्": 3065,
      "वास्त": 3066,
      "सीआर": 3067,
      "उपराष्ट्रपति": 3068,
      "बेटी": 3069,
      "उत्साह": 3070,
      "शासकीय": 3071,
      "स्टेडियम": 3072,
      "उत्तराखंड": 3073,
      "हिंसा": 3074,
      "आंक": 3075,
      "ठि": 3076,
      "पढ़ा": 3077,
      "मढ़ी": 3078,
      "अलर्ट": 3079,
      "कमेटी": 3080,
      "हथियार": 3081,
      "अना": 3082,
      "ेंगी": 3083,
      "पोस्ट": 3084,
      "आशंका": 3085,
      "करो": 3086,
      "संकम": 3087,
      "दुर्ग": 3088,
      "सितम्बर": 3089,
      "विमर्श": 3090,
      "फू": 3091,
      "काउ": 3092,
      "एकजुट": 3093,
      "पार्ट": 3094,
      "सम्पन्न": 3095,
      "डॉक्टरों": 3096,
      "वितरित": 3097,
      "पत्ति": 3098,
      "जोड़ने": 3099,
      "एड": 3100,
      "साई": 3101,
      "रूपए": 3102,
      "तारा": 3103,
      "गुप्ता": 3104,
      "पदों": 3105,
      "डेढ़": 3106,
      "भागीय": 3107,
      "ज्ञापन": 3108,
      "छापेमारी": 3109,
      "नियर": 3110,
      "अग्": 3111,
      "श्वासन": 3112,
      "सैनिकों": 3113,
      "इकाई": 3114,
      "टिकट": 3115,
      "कारों": 3116,
      "पाया": 3117,
      "राजभवन": 3118,
      "चिकित्स": 3119,
      "विदेशी": 3120,
      "पन्ने": 3121,
      "हरे": 3122,
      "सामु": 3123,
      "बिल": 3124,
      "खाते": 3125,
      "ष्मान": 3126,
      "माध्यमिक": 3127,
      "आश्वासन": 3128,
      "चपेट": 3129,
      "र्न": 3130,
      "राकेश": 3131,
      "संचार": 3132,
      "अनुसूचित": 3133,
      "ंदगांव": 3134,
      "ट्रै": 3135,
      "पंचायती": 3136,
      "छे": 3137,
      "मुंगे": 3138,
      "उपकरण": 3139,
      "इनके": 3140,
      "डिस्ट": 3141,
      "डाक": 3142,
      "प्राथमिक": 3143,
      "भ्रष्टाचार": 3144,
      "राजनांदगांव": 3145,
      "खत्म": 3146,
      "ट्यू": 3147,
      "तुर": 3148,
      "ित्व": 3149,
      "जूद": 3150,
      "ट्रिक": 3151,
      "आकर्": 3152,
      "ृत": 3153,
      "देखा": 3154,
      "लेशन": 3155,
      "जिसे": 3156,
      "रेट": 3157,
      "रेगा": 3158,
      "वीरेन्द्र": 3159,
      "समापन": 3160,
      "लगवा": 3161,
      "टली": 3162,
      "फ्ट": 3163,
      "ारे": 3164,
      "सुनी": 3165,
      "कृतिक": 3166,
      "उठाया": 3167,
      "फंसे": 3168,
      "षित": 3169,
      "बाजी": 3170,
      "टेन": 3171,
      "स्टिक": 3172,
      "कॉलेजों": 3173,
      "अरुणाचल": 3174,
      "वस्तुओं": 3175,
      "दवारा": 3176,
      "िकों": 3177,
      "निः": 3178,
      "निवार": 3179,
      "प्लिस": 3180,
      "फिल": 3181,
      "आनंद": 3182,
      "दस्तक": 3183,
      "ौली": 3184,
      "्याज": 3185,
      "रणनीति": 3186,
      "केंद्रों": 3187,
      "कंपनी": 3188,
      "छात्राओं": 3189,
      "उंड": 3190,
      "खान": 3191,
      "तब": 3192,
      "पंड": 3193,
      "बस्तर": 3194,
      "करती": 3195,
      "पहनें": 3196,
      "लोकतंत्र": 3197,
      "सत्ताईस": 3198,
      "झु": 3199,
      "फर्जी": 3200,
      "बाई": 3201,
      "बताते": 3202,
      "प्राकृतिक": 3203,
      "लगने": 3204,
      "त्यो": 3205,
      "वाजपे": 3206,
      "चक्र": 3207,
      "सीएम": 3208,
      "न्वयन": 3209,
      "बावजूद": 3210,
      "बिंदल": 3211,
      "अजय": 3212,
      "अखिल": 3213,
      "दमी": 3214,
      "स्नान": 3215,
      "दाबाद": 3216,
      "श्रू": 3217,
      "अभ्य": 3218,
      "गिरने": 3219,
      "खला": 3220,
      "लक्षण": 3221,
      "विधि": 3222,
      "तिवारी": 3223,
      "सिविल": 3224,
      "उपचुनाव": 3225,
      "पदक": 3226,
      "लेते": 3227,
      "यूनि": 3228,
      "कोष": 3229,
      "आरोपियों": 3230,
      "श्रद्धाल": 3231,
      "वैज्ञानिकों": 3232,
      "बैंकों": 3233,
      "समस्तीपुर": 3234,
      "विद्युत": 3235,
      "वॉ": 3236,
      "प्रती": 3237,
      "शिश": 3238,
      "भरने": 3239,
      "विशेषज्ञों": 3240,
      "श्रद्वालुओं": 3241,
      "दस्ता": 3242,
      "कोट": 3243,
      "नाई": 3244,
      "सीधे": 3245,
      "पहंच": 3246,
      "तोष": 3247,
      "बचाने": 3248,
      "कने": 3249,
      "देंगे": 3250,
      "न्ना": 3251,
      "श्रमिक": 3252,
      "स्वीकृति": 3253,
      "हिन्दी": 3254,
      "प्रेरणा": 3255,
      "त्ति": 3256,
      "सीसी": 3257,
      "रामपुर": 3258,
      "रखना": 3259,
      "खेलों": 3260,
      "मॉन": 3261,
      "नेशनल": 3262,
      "औष": 3263,
      "चक": 3264,
      "मंद": 3265,
      "सूत्रों": 3266,
      "आयुष्मान": 3267,
      "शहीदों": 3268,
      "हाईकोर्ट": 3269,
      "रों": 3270,
      "संभाग": 3271,
      "त्यौ": 3272,
      "नवम्बर": 3273,
      "अस्सी": 3274,
      "गंग": 3275,
      "ध्": 3276,
      "नगरी": 3277,
      "कोशिश": 3278,
      "रासत": 3279,
      "ंग्": 3280,
      "प्रतिमा": 3281,
      "लगाये": 3282,
      "अनिल": 3283,
      "ब्यूरो": 3284,
      "मात्रा": 3285,
      "देशवासियों": 3286,
      "बाड़ी": 3287,
      "पारदर्": 3288,
      "सहमति": 3289,
      "पिन": 3290,
      "खरीदी": 3291,
      "सीतामढ़ी": 3292,
      "प्रको": 3293,
      "दिसम्": 3294,
      "बनाकर": 3295,
      "आईआर": 3296,
      "कॉल": 3297,
      "गुजरात": 3298,
      "भोज": 3299,
      "लूट": 3300,
      "उठाने": 3301,
      "सर्वोच्च": 3302,
      "दिसम्बर": 3303,
      "नही": 3304,
      "सिया": 3305,
      "प्रतिदिन": 3306,
      "गलत": 3307,
      "पहा": 3308,
      "भरो": 3309,
      "सारण": 3310,
      "कामगार": 3311,
      "दुष्": 3312,
      "सोमवार": 3313,
      "संकमण": 3314,
      "अज": 3315,
      "नक": 3316,
      "चौक": 3317,
      "अंदर": 3318,
      "स्टा": 3319,
      "सैनिक": 3320,
      "धर्मशाला": 3321,
      "प्लास्टिक": 3322,
      "चिकित्सकों": 3323,
      "त्यौहार": 3324,
      "खू": 3325,
      "गमन": 3326,
      "दय": 3327,
      "नंद": 3328,
      "पाई": 3329,
      "सकें": 3330,
      "डेकर": 3331,
      "फिलहाल": 3332,
      "टकों": 3333,
      "दं": 3334,
      "रमेश": 3335,
      "सुख": 3336,
      "मोर्चा": 3337,
      "च्नाव": 3338,
      "अधिकतर": 3339,
      "मॉनसून": 3340,
      "ंकी": 3341,
      "मुर": 3342,
      "स्मृ": 3343,
      "मंगल": 3344,
      "मुकेश": 3345,
      "मेल": 3346,
      "पहन": 3347,
      "पीएफ": 3348,
      "रुपए": 3349,
      "विद्यार्थी": 3350,
      "मुकाबले": 3351,
      "बसों": 3352,
      "सवार": 3353,
      "ूप": 3354,
      "किट": 3355,
      "विध": 3356,
      "गीत": 3357,
      "गीर": 3358,
      "उत्कृ": 3359,
      "मुकाबला": 3360,
      "मण्डल": 3361,
      "तह": 3362,
      "नम": 3363,
      "मरा": 3364,
      "केसरी": 3365,
      "यात्री": 3366,
      "हैया": 3367,
      "लाम": 3368,
      "गोली": 3369,
      "सितंबर": 3370,
      "हर्षवर्धन": 3371,
      "इंतजाम": 3372,
      "सामुदायिक": 3373,
      "द्वि": 3374,
      "सिस्ट": 3375,
      "स्मार्ट": 3376,
      "षिक": 3377,
      "कोर": 3378,
      "भाषण": 3379,
      "बाधित": 3380,
      "अनुदान": 3381,
      "ुरूप": 3382,
      "विश्वविद्यालयों": 3383,
      "कानपुर": 3384,
      "हराया": 3385,
      "सुर्खियां": 3386,
      "मुंगेर": 3387,
      "दें": 3388,
      "नती": 3389,
      "माई": 3390,
      "पासवान": 3391,
      "स्कूली": 3392,
      "स्टेट": 3393,
      "समन्वय": 3394,
      "अड्ड": 3395,
      "आवं": 3396,
      "मधु": 3397,
      "ेंस": 3398,
      "कार्यालयों": 3399,
      "पूजन": 3400,
      "वीएम": 3401,
      "बेच": 3402,
      "नोडल": 3403,
      "उदय": 3404,
      "हादसे": 3405,
      "स्मृति": 3406,
      "अच्छा": 3407,
      "उट": 3408,
      "ण्य": 3409,
      "भरा": 3410,
      "क्ताओं": 3411,
      "सामू": 3412,
      "बढ़े": 3413,
      "मिश्रा": 3414,
      "एजेंसी": 3415,
      "ंव": 3416,
      "इयों": 3417,
      "भेंट": 3418,
      "शह": 3419,
      "उपलब्धता": 3420,
      "चुनौती": 3421,
      "प्रोत्साहित": 3422,
      "उज्जैन": 3423,
      "ंखला": 3424,
      "विभागीय": 3425,
      "लापर": 3426,
      "भाल": 3427,
      "ल्स": 3428,
      "देखने": 3429,
      "वार्षिक": 3430,
      "वाजपेयी": 3431,
      "नवी": 3432,
      "बादी": 3433,
      "धारा": 3434,
      "खुले": 3435,
      "नेटवर्क": 3436,
      "चंबा": 3437,
      "स्पेशल": 3438,
      "िका": 3439,
      "निकाल": 3440,
      "बीते": 3441,
      "जावडेकर": 3442,
      "फायदा": 3443,
      "इलेक्": 3444,
      "अथ": 3445,
      "ईवीएम": 3446,
      "ठो": 3447,
      "डु": 3448,
      "औरंगाबाद": 3449,
      "लेन": 3450,
      "होश": 3451,
      "जनरल": 3452,
      "दावा": 3453,
      "जीव": 3454,
      "मानसून": 3455,
      "ग्रस्त": 3456,
      "गरज": 3457,
      "आईजी": 3458,
      "वैशाली": 3459,
      "जगहों": 3460,
      "उत्कृष्ट": 3461,
      "आपात": 3462,
      "चर": 3463,
      "य्": 3464,
      "कोटा": 3465,
      "तीनों": 3466,
      "ंसठ": 3467,
      "तकनीक": 3468,
      "सशक्त": 3469,
      "सख्ती": 3470,
      "श्रोताओं": 3471,
      "लापरवाही": 3472,
      "ंतर": 3473,
      "अध्य": 3474,
      "इड": 3475,
      "गहरा": 3476,
      "क्सर": 3477,
      "बीकाने": 3478,
      "गीय": 3479,
      "कराये": 3480,
      "ज़र": 3481,
      "कंपनियों": 3482,
      "आजादी": 3483,
      "बीकानेर": 3484,
      "्वान": 3485,
      "देगी": 3486,
      "पाली": 3487,
      "महेन्द्र": 3488,
      "पैंतीस": 3489,
      "नोटिस": 3490,
      "पांडेय": 3491,
      "अल्प": 3492,
      "सामान": 3493,
      "हिब": 3494,
      "वेन्द्र": 3495,
      "प्रतिपक्ष": 3496,
      "भूत": 3497,
      "पार्क": 3498,
      "सामूहिक": 3499,
      "आउट": 3500,
      "टियों": 3501,
      "सत्य": 3502,
      "सूर्य": 3503,
      "मनरेगा": 3504,
      "वृष्टि": 3505,
      "हिमपात": 3506,
      "साव": 3507,
      "दायर": 3508,
      "ंचल": 3509,
      "जाएंगी": 3510,
      "सबका": 3511,
      "भेड़": 3512,
      "पंडित": 3513,
      "चंडी": 3514,
      "जों": 3515,
      "शरी": 3516,
      "संवेदन": 3517,
      "निःशुल्क": 3518,
      "फु": 3519,
      "मौर्य": 3520,
      "संस्कार": 3521,
      "संक्षि": 3522,
      "संबोधन": 3523,
      "कलन": 3524,
      "पर्यटकों": 3525,
      "अभिभाव": 3526,
      "सख्त": 3527,
      "पचहत्तर": 3528,
      "दयाल": 3529,
      "तुरंत": 3530,
      "डब्": 3531,
      "षक": 3532,
      "प्रकरण": 3533,
      "निलंबित": 3534,
      "संख्य": 3535,
      "निर्मित": 3536,
      "ग्रे": 3537,
      "स्थायी": 3538,
      "महासचिव": 3539,
      "आपसी": 3540,
      "कैया": 3541,
      "रोगी": 3542,
      "कानूनों": 3543,
      "चम्": 3544,
      "चलाई": 3545,
      "साहिब": 3546,
      "क्रे": 3547,
      "कार्यकम": 3548,
      "उसका": 3549,
      "ऑनलाईन": 3550,
      "आह्वान": 3551,
      "तिहास": 3552,
      "मनोहर": 3553,
      "मशीन": 3554,
      "आइस": 3555,
      "इतिहास": 3556,
      "गंड": 3557,
      "हस्ता": 3558,
      "करार": 3559,
      "कार्यकारी": 3560,
      "संक्षिप्त": 3561,
      "जगत": 3562,
      "सिद्": 3563,
      "शिक": 3564,
      "गुना": 3565,
      "हेल्प": 3566,
      "चैन": 3567,
      "अररिया": 3568,
      "अंतरि": 3569,
      "होशंगाबाद": 3570,
      "कक्ष": 3571,
      "बॉ": 3572,
      "विज": 3573,
      "वाण": 3574,
      "ंडर": 3575,
      "थाने": 3576,
      "धनराशि": 3577,
      "घोटा": 3578,
      "आयकर": 3579,
      "बिक्री": 3580,
      "सशस्त्र": 3581,
      "आमंत्र": 3582,
      "शौ": 3583,
      "संदिग्": 3584,
      "मुठ": 3585,
      "उनसे": 3586,
      "खास": 3587,
      "चौरा": 3588,
      "सोन": 3589,
      "एसडी": 3590,
      "उठाये": 3591,
      "इक्या": 3592,
      "खारिज": 3593,
      "कह": 3594,
      "नंबर": 3595,
      "बरा": 3596,
      "बहत": 3597,
      "शान": 3598,
      "पैंतालीस": 3599,
      "संवेदनशील": 3600,
      "तट": 3601,
      "प्रसिद्ध": 3602,
      "प्रतिष्ठ": 3603,
      "अवकाश": 3604,
      "जोध": 3605,
      "एमएस": 3606,
      "करेंगी": 3607,
      "दारों": 3608,
      "अतिथि": 3609,
      "गतिविधियां": 3610,
      "विस्तृत": 3611,
      "चूनाव": 3612,
      "निष्पक्ष": 3613,
      "नमूनों": 3614,
      "दस्तावेज": 3615,
      "गंडक": 3616,
      "असम": 3617,
      "वालय": 3618,
      "निवास": 3619,
      "क्षम": 3620,
      "सुप्री": 3621,
      "रूम": 3622,
      "वेंकैया": 3623,
      "बसपा": 3624,
      "नवाचार": 3625,
      "ईटानगर": 3626,
      "संदिग्ध": 3627,
      "अका": 3628,
      "ड्यू": 3629,
      "वती": 3630,
      "राज्यमंत्री": 3631,
      "म्मद": 3632,
      "पीएस": 3633,
      "लंदा": 3634,
      "करोड": 3635,
      "कामगारों": 3636,
      "सपा": 3637,
      "क्या": 3638,
      "क्मार": 3639,
      "नालंदा": 3640,
      "राजेश": 3641,
      "नीचे": 3642,
      "परीक्षाओं": 3643,
      "गौरव": 3644,
      "वापसी": 3645,
      "चली": 3646,
      "मपुर": 3647,
      "विपिन": 3648,
      "बाईट": 3649,
      "उनमें": 3650,
      "उनतीस": 3651,
      "युद्ध": 3652,
      "विषयों": 3653,
      "कूल": 3654,
      "उल्लेखनीय": 3655,
      "उपभोक्ता": 3656,
      "आइसो": 3657,
      "आर्": 3658,
      "पत": 3659,
      "रसा": 3660,
      "लंग": 3661,
      "ेंसिंग": 3662,
      "संतोष": 3663,
      "श्त": 3664,
      "वर्ती": 3665,
      "महागठबंधन": 3666,
      "बनाना": 3667,
      "इन्हें": 3668,
      "प्राथमिकी": 3669,
      "नवादा": 3670,
      "अड़तालीस": 3671,
      "दबाव": 3672,
      "न्त": 3673,
      "रिकार्ड": 3674,
      "वेस्ट": 3675,
      "टेली": 3676,
      "श्रृ": 3677,
      "सकेगी": 3678,
      "आरोग": 3679,
      "हमारा": 3680,
      "कल्याणकारी": 3681,
      "प्रयोगशाला": 3682,
      "आवाजा": 3683,
      "जिस्ट्रे": 3684,
      "खराब": 3685,
      "वसू": 3686,
      "विजे": 3687,
      "बाला": 3688,
      "अवगत": 3689,
      "सम्बन्": 3690,
      "सचिवालय": 3691,
      "खिलाड़ियों": 3692,
      "कानूनी": 3693,
      "आंगन": 3694,
      "भरोसा": 3695,
      "तहसील": 3696,
      "सिस्टम": 3697,
      "आरोग्य": 3698,
      "आवाजाही": 3699,
      "तस्कर": 3700,
      "नज़र": 3701,
      "यलों": 3702,
      "बढ़ती": 3703,
      "घायलों": 3704,
      "कांत": 3705,
      "साइकिल": 3706,
      "भेजने": 3707,
      "क्वारं": 3708,
      "ब्रे": 3709,
      "बद्व": 3710,
      "कोल": 3711,
      "कोसी": 3712,
      "रिट": 3713,
      "धीन": 3714,
      "कराए": 3715,
      "महाविद्यालय": 3716,
      "पड़ने": 3717,
      "गों": 3718,
      "छः": 3719,
      "डोल": 3720,
      "काशी": 3721,
      "लाब": 3722,
      "बढ़ाकर": 3723,
      "वित्तमंत्री": 3724,
      "हवाओं": 3725,
      "बचने": 3726,
      "मोहम्मद": 3727,
      "ण्डा": 3728,
      "ड्रा": 3729,
      "नवं": 3730,
      "गिरि": 3731,
      "समर्पित": 3732,
      "चंडीगढ़": 3733,
      "नवंबर": 3734,
      "जापुर": 3735,
      "समित": 3736,
      "रोधी": 3737,
      "शिप": 3738,
      "लगाकर": 3739,
      "सहारा": 3740,
      "बेन": 3741,
      "उद्योगों": 3742,
      "शुभारम्भ": 3743,
      "त्योहार": 3744,
      "क्कर": 3745,
      "राजेन्द्र": 3746,
      "समक्ष": 3747,
      "सदर": 3748,
      "फ्त": 3749,
      "यूष": 3750,
      "उम्र": 3751,
      "आवागमन": 3752,
      "कॉन्फ्रेंसिंग": 3753,
      "इत": 3754,
      "पान": 3755,
      "पला": 3756,
      "प्टर": 3757,
      "किन्न": 3758,
      "हाली": 3759,
      "मंत": 3760,
      "पायल": 3761,
      "मुहैया": 3762,
      "ब्बे": 3763,
      "सहकारी": 3764,
      "खोले": 3765,
      "दिखाई": 3766,
      "चिन्हित": 3767,
      "उड़ान": 3768,
      "रथ": 3769,
      "कें": 3770,
      "शिया": 3771,
      "निर्मला": 3772,
      "योग्य": 3773,
      "जोशी": 3774,
      "शक्तिकरण": 3775,
      "ड्डी": 3776,
      "गोपालगंज": 3777,
      "क्रांति": 3778,
      "सुप्रीम": 3779,
      "कभी": 3780,
      "डें": 3781,
      "कित": 3782,
      "कांड": 3783,
      "स्ना": 3784,
      "परम्प": 3785,
      "दोबारा": 3786,
      "वर्चु": 3787,
      "उपमुख्यमंत्री": 3788,
      "सैन्य": 3789,
      "देखभाल": 3790,
      "नियंत्रित": 3791,
      "पौध": 3792,
      "आमंत्रित": 3793,
      "जोधपुर": 3794,
      "नर्": 3795,
      "बलि": 3796,
      "संपन्न": 3797,
      "सरदार": 3798,
      "बिहारी": 3799,
      "स्वामी": 3800,
      "जुड़": 3801,
      "निर्वाचित": 3802,
      "गिरफ्तारी": 3803,
      "माहौल": 3804,
      "जनजाति": 3805,
      "प्रोत्साहन": 3806,
      "ओला": 3807,
      "जम": 3808,
      "थो": 3809,
      "दोग": 3810,
      "सशक्तिकरण": 3811,
      "पाद": 3812,
      "मुक्ति": 3813,
      "अनुरूप": 3814,
      "जेटली": 3815,
      "सोच": 3816,
      "ट्रॉ": 3817,
      "सतर्कता": 3818,
      "अध्ययन": 3819,
      "मुठभेड़": 3820,
      "परम्परा": 3821,
      "आयी": 3822,
      "ट्ट": 3823,
      "ठान": 3824,
      "धनों": 3825,
      "पटा": 3826,
      "शव": 3827,
      "करनी": 3828,
      "न्स": 3829,
      "सीधा": 3830,
      "सुचार": 3831,
      "मारक": 3832,
      "कमजोर": 3833,
      "उससे": 3834,
      "भेजे": 3835,
      "आदिवासी": 3836,
      "अग्नि": 3837,
      "अल्": 3838,
      "आश्र": 3839,
      "ईद": 3840,
      "प्रदू": 3841,
      "पालिका": 3842,
      "रूण": 3843,
      "डिंग": 3844,
      "हेमंत": 3845,
      "समाजवादी": 3846,
      "प्रारंभ": 3847,
      "छठ": 3848,
      "तव्य": 3849,
      "ल्यू": 3850,
      "केयर": 3851,
      "लेश": 3852,
      "टाइन": 3853,
      "चाहिये": 3854,
      "खुद": 3855,
      "न्यायिक": 3856,
      "रविशंकर": 3857,
      "सुर्खियों": 3858,
      "रोहतास": 3859,
      "किन्नौर": 3860,
      "अम": 3861,
      "उर्": 3862,
      "रन": 3863,
      "लर": 3864,
      "कराना": 3865,
      "क्षी": 3866,
      "शिष्ट": 3867,
      "हिया": 3868,
      "पीयूष": 3869,
      "ंदर": 3870,
      "व्यवहार": 3871,
      "ध्याय": 3872,
      "पहुंचने": 3873,
      "संघर्ष": 3874,
      "हटाने": 3875,
      "परेशान": 3876,
      "अनाज": 3877,
      "तोड़": 3878,
      "नड्डा": 3879,
      "लड़ाई": 3880,
      "हवाले": 3881,
      "निर": 3882,
      "मुफ्त": 3883,
      "आजी": 3884,
      "बीर": 3885,
      "परिक": 3886,
      "दुकानों": 3887,
      "अट्ठाईस": 3888,
      "पुनर्": 3889,
      "कारोबार": 3890,
      "संस्करण": 3891,
      "पायलट": 3892,
      "कड़ा": 3893,
      "गड": 3894,
      "संवेद": 3895,
      "व्यवसाय": 3896,
      "शोध": 3897,
      "मैन": 3898,
      "कुलदीप": 3899,
      "समर्पण": 3900,
      "छोड़कर": 3901,
      "परेशानी": 3902,
      "खगड़": 3903,
      "थित": 3904,
      "पृ": 3905,
      "फ्यू": 3906,
      "कोता": 3907,
      "स्टी": 3908,
      "निवासी": 3909,
      "भीषण": 3910,
      "दीपा": 3911,
      "शिला": 3912,
      "दाम": 3913,
      "सभाओं": 3914,
      "दुकान": 3915,
      "खंडवा": 3916,
      "करवाया": 3917,
      "धुनिक": 3918,
      "सौंपा": 3919,
      "खगड़िया": 3920,
      "कोताही": 3921,
      "घट": 3922,
      "बरे": 3923,
      "मकान": 3924,
      "केरल": 3925,
      "विविध": 3926,
      "लादेश": 3927,
      "क्षार्": 3928,
      "मात्र": 3929,
      "वीण": 3930,
      "उपज": 3931,
      "भूषण": 3932,
      "फाइन": 3933,
      "खनन": 3934,
      "फोरम": 3935,
      "जुर्माना": 3936,
      "स्वर्गीय": 3937,
      "शुरुआत": 3938,
      "नगरीय": 3939,
      "ओम": 3940,
      "चमक": 3941,
      "छता": 3942,
      "दीपक": 3943,
      "एकत्र": 3944,
      "उनको": 3945,
      "प्प": 3946,
      "लाखों": 3947,
      "महासमु": 3948,
      "उपाध्याय": 3949,
      "मनाली": 3950,
      "तियां": 3951,
      "स्मारक": 3952,
      "सिलसिला": 3953,
      "सावधानी": 3954,
      "वर्चुअल": 3955,
      "डियों": 3956,
      "स्लग": 3957,
      "डीह": 3958,
      "क्षणिक": 3959,
      "शिवपुरी": 3960,
      "दुर्गा": 3961,
      "उत्तराखण्ड": 3962,
      "दंते": 3963,
      "अल्पसंख्य": 3964,
      "टॉ": 3965,
      "रक्त": 3966,
      "सत्या": 3967,
      "वाओं": 3968,
      "पाने": 3969,
      "जनक": 3970,
      "लोड": 3971,
      "खाली": 3972,
      "शेख": 3973,
      "क्वारें": 3974,
      "ओलावृष्टि": 3975,
      "अत्य": 3976,
      "अमृत": 3977,
      "ओपन": 3978,
      "दंड": 3979,
      "रित": 3980,
      "योजनाएं": 3981,
      "भरत": 3982,
      "नीतियों": 3983,
      "जनपदों": 3984,
      "डिस्टेंसिंग": 3985,
      "अमे": 3986,
      "्डी": 3987,
      "स्म": 3988,
      "विदा": 3989,
      "होनी": 3990,
      "लोगो": 3991,
      "मुख्यमंत्रियों": 3992,
      "ंकिंग": 3993,
      "अजमेर": 3994,
      "शहडोल": 3995,
      "कपूर": 3996,
      "नब्बे": 3997,
      "पौल": 3998,
      "नाटक": 3999,
      "निचले": 4000,
      "टेक्": 4001,
      "कैं": 4002,
      "देखी": 4003,
      "ढाई": 4004,
      "स्टेशनों": 4005,
      "परेड": 4006,
      "चैनलों": 4007,
      "अकादमी": 4008,
      "बलिदान": 4009,
      "सौर": 4010,
      "ंचित": 4011,
      "मिलना": 4012,
      "वर्षों": 4013,
      "चुनावों": 4014,
      "अधिकारिता": 4015,
      "ितिन": 4016,
      "स्वीकार": 4017,
      "साहू": 4018,
      "अरब": 4019,
      "बरतें": 4020,
      "शांतिपूर्ण": 4021,
      "िज्य": 4022,
      "हरिद्वार": 4023,
      "प्रयागराज": 4024,
      "संवेदना": 4025,
      "टोल": 4026,
      "नशे": 4027,
      "बौ": 4028,
      "बहाल": 4029,
      "भाष": 4030,
      "चालक": 4031,
      "पारा": 4032,
      "अनुमान": 4033,
      "इंडि": 4034,
      "बारहवीं": 4035,
      "परीक्षार्": 4036,
      "बागवानी": 4037,
      "मण्डी": 4038,
      "प्रबंधक": 4039,
      "छुट्टी": 4040,
      "स्टार्ट": 4041,
      "प्रतीक": 4042,
      "प्रकोप": 4043,
      "वाणिज्य": 4044,
      "आइसोलेशन": 4045,
      "श्रृंखला": 4046,
      "सुचारू": 4047,
      "जमु": 4048,
      "ज्यो": 4049,
      "दिलाने": 4050,
      "सदस्यता": 4051,
      "चलाए": 4052,
      "कुलपति": 4053,
      "नवरा": 4054,
      "प्रस्तावित": 4055,
      "गर्व": 4056,
      "चयनित": 4057,
      "सिलसिले": 4058,
      "ओपी": 4059,
      "कड़ाई": 4060,
      "बक्सर": 4061,
      "भंडार": 4062,
      "लाना": 4063,
      "विज्ञ": 4064,
      "वाहा": 4065,
      "लेना": 4066,
      "रहि": 4067,
      "जनजीवन": 4068,
      "भाग्य": 4069,
      "उत्पन्न": 4070,
      "सर्जन": 4071,
      "इंजी": 4072,
      "उसमें": 4073,
      "पंजीयन": 4074,
      "छताछ": 4075,
      "नितिन": 4076,
      "षेक": 4077,
      "दिसं": 4078,
      "दिलाई": 4079,
      "सिम": 4080,
      "शाखा": 4081,
      "प्रोजे": 4082,
      "मेरठ": 4083,
      "शैक्षणिक": 4084,
      "पाठ्य": 4085,
      "श्रद्धालुओं": 4086,
      "ड्यूटी": 4087,
      "ऑपरे": 4088,
      "विकल्प": 4089,
      "रीवा": 4090,
      "सुपौल": 4091,
      "बीएस": 4092,
      "प्लेट": 4093,
      "छाये": 4094,
      "नौकरी": 4095,
      "ब्रि": 4096,
      "फार्म": 4097,
      "कठि": 4098,
      "झे": 4099,
      "नमा": 4100,
      "फ्री": 4101,
      "बत्तीस": 4102,
      "हंगा": 4103,
      "केज": 4104,
      "देशी": 4105,
      "गेश्वर": 4106,
      "पेट्रोल": 4107,
      "तुलना": 4108,
      "चुनौतियों": 4109,
      "स्पीति": 4110,
      "वास्तव": 4111,
      "अड्डे": 4112,
      "पादकीय": 4113,
      "प्रदूषण": 4114,
      "दिसंबर": 4115,
      "आधिकार": 4116,
      "जोग": 4117,
      "दम": 4118,
      "ूष": 4119,
      "हुयी": 4120,
      "जनसंपर्क": 4121,
      "शीतल": 4122,
      "गोष्ठ": 4123,
      "मांगों": 4124,
      "गणतंत्र": 4125,
      "पत्नी": 4126,
      "लौट": 4127,
      "आंगनबाड़ी": 4128,
      "दीपावली": 4129,
      "आबादी": 4130,
      "बस्ती": 4131,
      "लभ": 4132,
      "लु": 4133,
      "वंचित": 4134,
      "संयंत्र": 4135,
      "संपत्ति": 4136,
      "दिरा": 4137,
      "होत्री": 4138,
      "निर्मा": 4139,
      "प्रतिभा": 4140,
      "चौथे": 4141,
      "आरटी": 4142,
      "थीं": 4143,
      "सर्वा": 4144,
      "डोज": 4145,
      "अड़तीस": 4146,
      "आलो": 4147,
      "ट्री": 4148,
      "थन": 4149,
      "सवाई": 4150,
      "साहित": 4151,
      "रूद्व": 4152,
      "मेन": 4153,
      "करायी": 4154,
      "निकट": 4155,
      "उपलब्धि": 4156,
      "जिसका": 4157,
      "पदार्थ": 4158,
      "आतंकी": 4159,
      "ंचाई": 4160,
      "गणेश": 4161,
      "आंधी": 4162,
      "दृढ़": 4163,
      "अच्छे": 4164,
      "रहेंगी": 4165,
      "प्रिय": 4166,
      "दोषियों": 4167,
      "स्वर्ण": 4168,
      "जिन्हें": 4169,
      "बयालीस": 4170,
      "समझौता": 4171,
      "ेंडर": 4172,
      "बाबा": 4173,
      "पूलिस": 4174,
      "जिलाधिकारियों": 4175,
      "उपलब्धियों": 4176,
      "मनाने": 4177,
      "भेद": 4178,
      "प्रोफे": 4179,
      "व्रत": 4180,
      "दंतेवाड़ा": 4181,
      "ाम": 4182,
      "केशन": 4183,
      "निदेश": 4184,
      "तिरा": 4185,
      "मोचन": 4186,
      "सोसि": 4187,
      "हितों": 4188,
      "गणमान्य": 4189,
      "आयुष": 4190,
      "निशंक": 4191,
      "भाषाओं": 4192,
      "सुनील": 4193,
      "अथवा": 4194,
      "डब्ल्यू": 4195,
      "बरेली": 4196,
      "दलीय": 4197,
      "मका": 4198,
      "लम्": 4199,
      "मुआव": 4200,
      "वीवी": 4201,
      "मेट्रो": 4202,
      "अनुभव": 4203,
      "स्थितियों": 4204,
      "बढ़ाया": 4205,
      "परीक्षाएं": 4206,
      "शंसा": 4207,
      "सीआरपीएफ": 4208,
      "सियांग": 4209,
      "जमुई": 4210,
      "एशन": 4211,
      "दत्ता": 4212,
      "ध्व": 4213,
      "भक्त": 4214,
      "क्छ": 4215,
      "राइ": 4216,
      "एसएस": 4217,
      "फैलने": 4218,
      "फिट": 4219,
      "वायुसेना": 4220,
      "अंग्रे": 4221,
      "शरीर": 4222,
      "दोगु": 4223,
      "गडकरी": 4224,
      "अली": 4225,
      "घरेल": 4226,
      "ब्य": 4227,
      "ैना": 4228,
      "ंचे": 4229,
      "मोली": 4230,
      "ंडन": 4231,
      "खातों": 4232,
      "सोई": 4233,
      "पहुंची": 4234,
      "व्यापी": 4235,
      "सांसदों": 4236,
      "बाइट": 4237,
      "नैतिक": 4238,
      "मृतकों": 4239,
      "कच": 4240,
      "चमोली": 4241,
      "स्पर्": 4242,
      "ल्थ": 4243,
      "कुंभ": 4244,
      "पैसे": 4245,
      "आपको": 4246,
      "लक्ष्": 4247,
      "बूथ": 4248,
      "दिखाकर": 4249,
      "मशीनों": 4250,
      "टेनमेंट": 4251,
      "अग्निहोत्री": 4252,
      "प्रोजेक्ट": 4253,
      "अनाव": 4254,
      "मनी": 4255,
      "वला": 4256,
      "सता": 4257,
      "हजारी": 4258,
      "परंप": 4259,
      "जिक्र": 4260,
      "मुस्": 4261,
      "चालू": 4262,
      "महिलाएं": 4263,
      "पैट": 4264,
      "समाचारों": 4265,
      "ज़रू": 4266,
      "दायित्व": 4267,
      "मॉडल": 4268,
      "गार्ड": 4269,
      "जिन्होंने": 4270,
      "औषधि": 4271,
      "हस्ताक्षर": 4272,
      "रहिये": 4273,
      "गें": 4274,
      "यौन": 4275,
      "सवे": 4276,
      "क्का": 4277,
      "रेड": 4278,
      "बताई": 4279,
      "डाले": 4280,
      "क्रियान्वयन": 4281,
      "आधिकारिक": 4282,
      "झी": 4283,
      "सहर": 4284,
      "हू": 4285,
      "काया": 4286,
      "त्रेय": 4287,
      "सम्भावना": 4288,
      "पियन": 4289,
      "आईसी": 4290,
      "सर्दी": 4291,
      "आसानी": 4292,
      "सेंटी": 4293,
      "समूहों": 4294,
      "रोहतांग": 4295,
      "फाइनल": 4296,
      "अमरी": 4297,
      "ओवर": 4298,
      "बड़": 4299,
      "लघु": 4300,
      "ौती": 4301,
      "विमा": 4302,
      "क्ष्य": 4303,
      "दिला": 4304,
      "त्ती": 4305,
      "शिता": 4306,
      "हरण": 4307,
      "पैंसठ": 4308,
      "खिलाड़ी": 4309,
      "बहत्तर": 4310,
      "हालात": 4311,
      "मनोज": 4312,
      "व्यापारियों": 4313,
      "निराकरण": 4314,
      "महासमुंद": 4315,
      "दत्तात्रेय": 4316,
      "कड़े": 4317,
      "नृ": 4318,
      "बंडार": 4319,
      "लम": 4320,
      "हक": 4321,
      "प्रशि": 4322,
      "सेव": 4323,
      "निरं": 4324,
      "गाइड": 4325,
      "सीएच": 4326,
      "सिरम": 4327,
      "र्थियों": 4328,
      "कांफ्रेंसिंग": 4329,
      "मान्यता": 4330,
      "मालवा": 4331,
      "समुचित": 4332,
      "चलेगा": 4333,
      "दोषी": 4334,
      "पार्टियों": 4335,
      "विज्ञप्ति": 4336,
      "सहरसा": 4337,
      "बंडारू": 4338,
      "झू": 4339,
      "बहाद": 4340,
      "बॉल": 4341,
      "कियों": 4342,
      "माइ": 4343,
      "बांस": 4344,
      "कुश": 4345,
      "पूर्णिया": 4346,
      "त्रिवेन्द्र": 4347,
      "टाइजर": 4348,
      "आगरा": 4349,
      "शिकायतों": 4350,
      "तैनाती": 4351,
      "उदयपुर": 4352,
      "शौचा": 4353,
      "घरेलू": 4354,
      "बहादुर": 4355,
      "जमान": 4356,
      "फार": 4357,
      "प्रजा": 4358,
      "विरोधी": 4359,
      "मासिक": 4360,
      "द्रा": 4361,
      "ल्या": 4362,
      "करोड़ों": 4363,
      "चिकित्सक": 4364,
      "वृत्ति": 4365,
      "निकायों": 4366,
      "निकलने": 4367,
      "बेचने": 4368,
      "ठोस": 4369,
      "अंतरिक्ष": 4370,
      "परंपरा": 4371,
      "गुरु": 4372,
      "ढे": 4373,
      "दवाई": 4374,
      "नमन": 4375,
      "काज": 4376,
      "प्रभार": 4377,
      "सेक्टर": 4378,
      "सेवान": 4379,
      "पाट": 4380,
      "निर्यात": 4381,
      "अपे": 4382,
      "बनाते": 4383,
      "मरने": 4384,
      "संचालक": 4385,
      "लेंस": 4386,
      "बीमारियों": 4387,
      "समितियों": 4388,
      "नवरात्र": 4389,
      "सेवानि": 4390,
      "लखी": 4391,
      "सक्षम": 4392,
      "संतु": 4393,
      "बढ़ी": 4394,
      "सहकार": 4395,
      "जेपी": 4396,
      "बेहद": 4397,
      "ट्यूब": 4398,
      "सिरमौर": 4399,
      "टक्कर": 4400,
      "लिम": 4401,
      "दूध": 4402,
      "जोड़ा": 4403,
      "डाय": 4404,
      "हमने": 4405,
      "सब्जी": 4406,
      "स्टाफ": 4407,
      "पाठ्यक्रम": 4408,
      "शीतलहर": 4409,
      "आरा": 4410,
      "उफान": 4411,
      "राक": 4412,
      "वाय": 4413,
      "संग": 4414,
      "जीओ": 4415,
      "उपस्थिति": 4416,
      "स्टि": 4417,
      "अधिकारों": 4418,
      "स्क्री": 4419,
      "दसवीं": 4420,
      "वासीय": 4421,
      "अंतरराष्ट्रीय": 4422,
      "लड़ने": 4423,
      "सतर्क": 4424,
      "अभिभावकों": 4425,
      "डेंगू": 4426,
      "सेंटीमीटर": 4427,
      "आगर": 4428,
      "टंडन": 4429,
      "फंड": 4430,
      "लकों": 4431,
      "शनिवार": 4432,
      "हआ": 4433,
      "हाना": 4434,
      "्ज": 4435,
      "्स": 4436,
      "यानी": 4437,
      "करवाई": 4438,
      "हाट": 4439,
      "समग्र": 4440,
      "पुरूष": 4441,
      "बीती": 4442,
      "अपनाने": 4443,
      "पढ़ाई": 4444,
      "काउं": 4445,
      "भोजपुर": 4446,
      "घोटाले": 4447,
      "प्रोफेसर": 4448,
      "इस्ती": 4449,
      "नपुर": 4450,
      "रसोई": 4451,
      "ताकत": 4452,
      "लियन": 4453,
      "गाय": 4454,
      "बांग्": 4455,
      "श्रीवास्तव": 4456,
      "ब्लॉक": 4457,
      "सर्वि": 4458,
      "ंत्रिक": 4459,
      "सैंप": 4460,
      "चरणों": 4461,
      "मुरैना": 4462,
      "निरंतर": 4463,
      "अरूण": 4464,
      "एसोसि": 4465,
      "कथित": 4466,
      "चौर": 4467,
      "तबाद": 4468,
      "ब्रा": 4469,
      "ुमान": 4470,
      "नेह": 4471,
      "स्ति": 4472,
      "क्ला": 4473,
      "लिमि": 4474,
      "दिख": 4475,
      "मिता": 4476,
      "सतना": 4477,
      "निकाय": 4478,
      "दुष्कर्म": 4479,
      "गोष्ठी": 4480,
      "अंग्रेजी": 4481,
      "हजारीबाग": 4482,
      "आवासीय": 4483,
      "एंड": 4484,
      "ओडि": 4485,
      "श्या": 4486,
      "िम": 4487,
      "किरा": 4488,
      "विस्": 4489,
      "जात": 4490,
      "बायो": 4491,
      "सीकर": 4492,
      "कुशल": 4493,
      "खाने": 4494,
      "रामस्वरूप": 4495,
      "त्वरित": 4496,
      "कारणों": 4497,
      "तलाश": 4498,
      "पड़ेगा": 4499,
      "ट्रांस": 4500,
      "आजीविका": 4501,
      "सहकारिता": 4502,
      "चां": 4503,
      "मारे": 4504,
      "गेहूं": 4505,
      "पोलि": 4506,
      "पूर्वो": 4507,
      "व्यवस्थाओं": 4508,
      "दौड़": 4509,
      "जिम्मेदार": 4510,
      "आयुर्विज्ञान": 4511,
      "आधुनिक": 4512,
      "खड़े": 4513,
      "खतरा": 4514,
      "झंडी": 4515,
      "फ़": 4516,
      "सरल": 4517,
      "उन्न": 4518,
      "गेट": 4519,
      "पुष्": 4520,
      "कर्फ्यू": 4521,
      "दर्जा": 4522,
      "पैकेज": 4523,
      "वालीस": 4524,
      "किनारे": 4525,
      "बजकर": 4526,
      "अपराधी": 4527,
      "पंजीकृत": 4528,
      "मुंबई": 4529,
      "पारदर्शिता": 4530,
      "क्वारंटीन": 4531,
      "मुस्लिम": 4532,
      "उसी": 4533,
      "वस्तु": 4534,
      "कानें": 4535,
      "जनहित": 4536,
      "पुत्र": 4537,
      "इनकी": 4538,
      "पुलिसकर्मियों": 4539,
      "पिथ": 4540,
      "सैजल": 4541,
      "कैसे": 4542,
      "व्यक्तिगत": 4543,
      "खुश": 4544,
      "चाहते": 4545,
      "फॉर": 4546,
      "भरतपुर": 4547,
      "तत्व": 4548,
      "विक्रम": 4549,
      "विशिष्ट": 4550,
      "दिलाया": 4551,
      "बाकी": 4552,
      "सुचना": 4553,
      "बीजापुर": 4554,
      "मानक": 4555,
      "ठाकर": 4556,
      "भूम": 4557,
      "आरएफ": 4558,
      "कॉप्टर": 4559,
      "कटौती": 4560,
      "वर्गों": 4561,
      "दवाओं": 4562,
      "उपभोक्ताओं": 4563,
      "मारकंडा": 4564,
      "नृत्य": 4565,
      "ईस्ट": 4566,
      "कब्": 4567,
      "टवीट": 4568,
      "भद्र": 4569,
      "वक्त": 4570,
      "सारी": 4571,
      "हस्त": 4572,
      "हजारों": 4573,
      "केन्द्रशासित": 4574,
      "पीआई": 4575,
      "स्वरोजगार": 4576,
      "फ्लू": 4577,
      "शोषण": 4578,
      "त्तरी": 4579,
      "विस्फो": 4580,
      "पूर्वोत्तर": 4581,
      "अम्बा": 4582,
      "ऋषि": 4583,
      "तान": 4584,
      "ुष": 4585,
      "जांज": 4586,
      "बागेश्वर": 4587,
      "रूस": 4588,
      "पूर्वा": 4589,
      "दर्जन": 4590,
      "डीजी": 4591,
      "आईए": 4592,
      "चीनी": 4593,
      "पूर्वानु": 4594,
      "ख्यात": 4595,
      "आधारशिला": 4596,
      "संरचना": 4597,
      "सलाहकार": 4598,
      "उमरिया": 4599,
      "स्रो": 4600,
      "नक्सली": 4601,
      "मधुबनी": 4602,
      "जमानत": 4603,
      "पोलियो": 4604,
      "जांजगीर": 4605,
      "पूर्वानुमान": 4606,
      "ँच": 4607,
      "अरो": 4608,
      "घू": 4609,
      "राई": 4610,
      "बागम": 4611,
      "शिल्प": 4612,
      "टीवी": 4613,
      "हनुमान": 4614,
      "मनाई": 4615,
      "फोर्स": 4616,
      "जतायी": 4617,
      "अन्सार": 4618,
      "रक्षामंत्री": 4619,
      "आनंदी": 4620,
      "तीसरी": 4621,
      "आचार्य": 4622,
      "जंगल": 4623,
      "दीनदयाल": 4624,
      "रेंज": 4625,
      "बागमती": 4626,
      "इकता": 4627,
      "कन्": 4628,
      "थु": 4629,
      "बें": 4630,
      "रमन": 4631,
      "विजन": 4632,
      "तालाब": 4633,
      "देता": 4634,
      "माया": 4635,
      "बासठ": 4636,
      "राज्यभर": 4637,
      "पूछताछ": 4638,
      "परिस्थितियों": 4639,
      "मौका": 4640,
      "धीरे": 4641,
      "इंदिरा": 4642,
      "प्रदर्शित": 4643,
      "बेडकर": 4644,
      "उर्वर": 4645,
      "बांग्लादेश": 4646,
      "अठ": 4647,
      "चम्बा": 4648,
      "पकों": 4649,
      "ुकता": 4650,
      "र्ण": 4651,
      "क्क": 4652,
      "वाता": 4653,
      "क्रो": 4654,
      "रेखा": 4655,
      "जाएं": 4656,
      "कर्तव्य": 4657,
      "धन्य": 4658,
      "धनबाद": 4659,
      "छाए": 4660,
      "फ्तार": 4661,
      "जिसकी": 4662,
      "रायसेन": 4663,
      "गंभीरता": 4664,
      "डोर": 4665,
      "पचपन": 4666,
      "चक्रवा": 4667,
      "चम्पारण": 4668,
      "नॉ": 4669,
      "्म": 4670,
      "निशुल्क": 4671,
      "मांगा": 4672,
      "सरवीण": 4673,
      "सुगम": 4674,
      "हिरासत": 4675,
      "मीट": 4676,
      "पहंचा": 4677,
      "केन्द्रित": 4678,
      "सिंहभूम": 4679,
      "दुख": 4680,
      "बुखार": 4681,
      "कांफ्रेंस": 4682,
      "सुधारों": 4683,
      "चलेगी": 4684,
      "प्लांट": 4685,
      "टेस्टिंग": 4686,
      "उद्यमियों": 4687,
      "एट": 4688,
      "एटी": 4689,
      "भरी": 4690,
      "यही": 4691,
      "्त": 4692,
      "प्रस्कार": 4693,
      "देल": 4694,
      "रोपण": 4695,
      "चारिक": 4696,
      "रेशन": 4697,
      "कुमारी": 4698,
      "स्टै": 4699,
      "हार्": 4700,
      "पैमाने": 4701,
      "लॉजी": 4702,
      "कंटेनमेंट": 4703,
      "फरार": 4704,
      "जागरुकता": 4705,
      "समूचे": 4706,
      "अध्यादेश": 4707,
      "एयरपोर्ट": 4708,
      "आलोचना": 4709,
      "लिमिटेड": 4710,
      "दपुर": 4711,
      "बसे": 4712,
      "यमु": 4713,
      "शारी": 4714,
      "ोर": 4715,
      "वित्र": 4716,
      "रास्ते": 4717,
      "माधो": 4718,
      "रहना": 4719,
      "बलरामपुर": 4720,
      "बांका": 4721,
      "खरीदने": 4722,
      "अभ्यर्थियों": 4723,
      "अल्पसंख्यक": 4724,
      "भेदभाव": 4725,
      "पिथौरा": 4726,
      "अम्बाला": 4727,
      "वातावरण": 4728,
      "आना": 4729,
      "पारी": 4730,
      "फरी": 4731,
      "जिया": 4732,
      "चारों": 4733,
      "पीसी": 4734,
      "विकासखंड": 4735,
      "तैंतीस": 4736,
      "जूनियर": 4737,
      "नोवल": 4738,
      "समस्याएं": 4739,
      "भ्रमण": 4740,
      "धन्यवाद": 4741,
      "शारीरिक": 4742,
      "कारगर": 4743,
      "देन": 4744,
      "बावन": 4745,
      "स्थिर": 4746,
      "चार्ज": 4747,
      "सौंप": 4748,
      "बरसात": 4749,
      "भिलाई": 4750,
      "पोख": 4751,
      "सचिवों": 4752,
      "बुजुर्": 4753,
      "प्रोटो": 4754,
      "लैब": 4755,
      "इंडियन": 4756,
      "ऑल": 4757,
      "चय": 4758,
      "पवित्र": 4759,
      "ब्याज": 4760,
      "येंगे": 4761,
      "सप": 4762,
      "हमला": 4763,
      "प्रदेष": 4764,
      "नाक": 4765,
      "हालत": 4766,
      "लिंक": 4767,
      "तीर्थ": 4768,
      "सीमित": 4769,
      "द्दा": 4770,
      "रहते": 4771,
      "जनसंख्या": 4772,
      "चारे": 4773,
      "मानी": 4774,
      "डिट": 4775,
      "एसई": 4776,
      "अभ्यास": 4777,
      "मांगी": 4778,
      "निकाला": 4779,
      "ढांचा": 4780,
      "लिखित": 4781,
      "कलाकारों": 4782,
      "प्रावधानों": 4783,
      "फॉर्म": 4784,
      "स्क्रीनिंग": 4785,
      "मन्": 4786,
      "हॉल": 4787,
      "ौड़": 4788,
      "प्रवास": 4789,
      "माफ": 4790,
      "ुरी": 4791,
      "स्थी": 4792,
      "धिया": 4793,
      "सीतारा": 4794,
      "पीढ़ी": 4795,
      "कर्ज": 4796,
      "जेशन": 4797,
      "खबरें": 4798,
      "सीटें": 4799,
      "महानिरी": 4800,
      "प्रतिबंधित": 4801,
      "शेखपुरा": 4802,
      "तनाव": 4803,
      "पराज": 4804,
      "भरे": 4805,
      "प्रकट": 4806,
      "देगा": 4807,
      "संभागों": 4808,
      "संगीत": 4809,
      "राजे": 4810,
      "सरो": 4811,
      "बिक्रम": 4812,
      "ग्रू": 4813,
      "डीजल": 4814,
      "कामकाज": 4815,
      "व्याव": 4816,
      "चलाये": 4817,
      "विचारों": 4818,
      "प्रत्यक्ष": 4819,
      "पहुंचाया": 4820,
      "अदालतों": 4821,
      "किशनगंज": 4822,
      "विजेता": 4823,
      "कैंसर": 4824,
      "साहित्य": 4825,
      "गन्ना": 4826,
      "जहाना": 4827,
      "नशा": 4828,
      "ोल्": 4829,
      "विनी": 4830,
      "संध्या": 4831,
      "साकार": 4832,
      "सीधी": 4833,
      "सीतार": 4834,
      "मुख्यालयों": 4835,
      "बरती": 4836,
      "खुराक": 4837,
      "तेजस्वी": 4838,
      "पहनने": 4839,
      "कड़ाके": 4840,
      "लक्ष्मी": 4841,
      "एसोसिएशन": 4842,
      "जहानाबाद": 4843,
      "उल": 4844,
      "कवि": 4845,
      "फ्रा": 4846,
      "शर": 4847,
      "प्रस": 4848,
      "प्रलिस": 4849,
      "स्विधा": 4850,
      "क्वि": 4851,
      "विद": 4852,
      "सालों": 4853,
      "दिक": 4854,
      "म्मत": 4855,
      "बनायी": 4856,
      "अनुकूल": 4857,
      "अवस्थी": 4858,
      "शीत": 4859,
      "स्वराज": 4860,
      "लियां": 4861,
      "स्पिति": 4862,
      "सचिन": 4863,
      "रियाल": 4864,
      "रायगढ़": 4865,
      "नैनी": 4866,
      "धूप": 4867,
      "आवंटन": 4868,
      "तस्करों": 4869,
      "इकतालीस": 4870,
      "आशी": 4871,
      "आमद": 4872,
      "ईमान": 4873,
      "जं": 4874,
      "िमा": 4875,
      "केदार": 4876,
      "नेश": 4877,
      "स्त्री": 4878,
      "विमोचन": 4879,
      "उन्होने": 4880,
      "मुखर्जी": 4881,
      "शांत": 4882,
      "वेशन": 4883,
      "ठासी": 4884,
      "पेन्द्र": 4885,
      "जुन": 4886,
      "हेली": 4887,
      "फोटो": 4888,
      "इकहत्तर": 4889,
      "भारतीयों": 4890,
      "उपकरणों": 4891,
      "इक्यावन": 4892,
      "चांपा": 4893,
      "ोल्लास": 4894,
      "आकां": 4895,
      "पचारिक": 4896,
      "रफ्तार": 4897,
      "लाए": 4898,
      "हाव": 4899,
      "देय": 4900,
      "चावल": 4901,
      "कार्यरत": 4902,
      "बीज": 4903,
      "पीएल": 4904,
      "चौकी": 4905,
      "कर्नाटक": 4906,
      "सूस": 4907,
      "वन्य": 4908,
      "फैलाने": 4909,
      "नोट": 4910,
      "सिलेंडर": 4911,
      "संसाधनों": 4912,
      "इंटरनेट": 4913,
      "मराह": 4914,
      "अल्मो": 4915,
      "सैंपल": 4916,
      "ईडी": 4917,
      "उइ": 4918,
      "छी": 4919,
      "थान": 4920,
      "नू": 4921,
      "पठान": 4922,
      "फते": 4923,
      "मिं": 4924,
      "क्रमा": 4925,
      "ंडू": 4926,
      "वर्द्": 4927,
      "स्ट्रे": 4928,
      "महसूस": 4929,
      "मदन": 4930,
      "पहुंचकर": 4931,
      "गर्ग": 4932,
      "खिलौ": 4933,
      "हर्षोल्लास": 4934,
      "श्रद्वालु": 4935,
      "तूल": 4936,
      "स्रक्षा": 4937,
      "समृद्धि": 4938,
      "निदेशालय": 4939,
      "वीवीपैट": 4940,
      "अपेक्षा": 4941,
      "सेवानिवृ": 4942,
      "माधोपुर": 4943,
      "महानिरीक्षक": 4944,
      "अम्": 4945,
      "कस्": 4946,
      "प्याज": 4947,
      "कार्या": 4948,
      "इसरो": 4949,
      "होटल": 4950,
      "दाना": 4951,
      "निकले": 4952,
      "विशेषकर": 4953,
      "आपके": 4954,
      "हिमालय": 4955,
      "टीमों": 4956,
      "आमजन": 4957,
      "सीमावर्ती": 4958,
      "शिवहर": 4959,
      "स्वीप": 4960,
      "मजबूती": 4961,
      "उद्यम": 4962,
      "बढाने": 4963,
      "कनेक्शन": 4964,
      "आकलन": 4965,
      "गोग": 4966,
      "णु": 4967,
      "भव्य": 4968,
      "पाण्ड": 4969,
      "शाही": 4970,
      "वर्गो": 4971,
      "खाता": 4972,
      "ब्दी": 4973,
      "मिलती": 4974,
      "रामलाल": 4975,
      "स्ट्रा": 4976,
      "टिहरी": 4977,
      "खेतों": 4978,
      "सातवें": 4979,
      "स्तरों": 4980,
      "सैंतीस": 4981,
      "पक्षों": 4982,
      "भेजी": 4983,
      "खुला": 4984,
      "लिखकर": 4985,
      "टैक्स": 4986,
      "मुआवजा": 4987,
      "जीओवी": 4988,
      "उइके": 4989,
      "अजीत": 4990,
      "मच": 4991,
      "शार": 4992,
      "हज": 4993,
      "्यु": 4994,
      "कोरिया": 4995,
      "्टन": 4996,
      "मानसिक": 4997,
      "च्चा": 4998,
      "पालना": 4999,
      "पिंग": 5000,
      "खेत": 5001,
      "फाइ": 5002,
      "दलपुर": 5003,
      "महीनों": 5004,
      "चिकित्सालय": 5005,
      "स्वीकृत": 5006,
      "पौधे": 5007,
      "वीरेंद्र": 5008,
      "टाइम्स": 5009,
      "समीप": 5010,
      "ान्वित": 5011,
      "सर्वाधिक": 5012,
      "इस्": 5013,
      "एक्ट": 5014,
      "चतु": 5015,
      "पढ़": 5016,
      "निपटा": 5017,
      "ड़िया": 5018,
      "बाहरी": 5019,
      "द्रदर्शन": 5020,
      "सुंदर": 5021,
      "अनलॉक": 5022,
      "टेक": 5023,
      "लगाते": 5024,
      "चौबे": 5025,
      "शीनगर": 5026,
      "दुमका": 5027,
      "घाटों": 5028,
      "जैविक": 5029,
      "कंट्रोल": 5030,
      "नियां": 5031,
      "खुल": 5032,
      "जिनके": 5033,
      "ग्रीन": 5034,
      "कदमों": 5035,
      "भवती": 5036,
      "गर्भवती": 5037,
      "कौशिक": 5038,
      "लौटे": 5039,
      "बालिकाओं": 5040,
      "पहाड़ी": 5041,
      "स्नातक": 5042,
      "स्टार्टअप": 5043,
      "अट": 5044,
      "टित": 5045,
      "भक्ति": 5046,
      "ूत": 5047,
      "काता": 5048,
      "काला": 5049,
      "विनो": 5050,
      "राबाद": 5051,
      "संजीव": 5052,
      "मुश्": 5053,
      "होर": 5054,
      "सीए": 5055,
      "सीवान": 5056,
      "ंगत": 5057,
      "बैतूल": 5058,
      "रामगढ़": 5059,
      "सदनों": 5060,
      "जलवायु": 5061,
      "पूर्णिमा": 5062,
      "सैंतालीस": 5063,
      "चेक": 5064,
      "हाथों": 5065,
      "बाजारों": 5066,
      "शिविरों": 5067,
      "पुराने": 5068,
      "मणि": 5069,
      "मंडला": 5070,
      "इच्छ": 5071,
      "कन्या": 5072,
      "घ्": 5073,
      "नर्म": 5074,
      "रत्": 5075,
      "केस": 5076,
      "सेवी": 5077,
      "क्के": 5078,
      "नाइ": 5079,
      "राणा": 5080,
      "हाबाद": 5081,
      "समझा": 5082,
      "मित्र": 5083,
      "क्रवार": 5084,
      "शिर": 5085,
      "हियों": 5086,
      "म्बई": 5087,
      "धारकों": 5088,
      "स्टॉ": 5089,
      "दुकानें": 5090,
      "इंस": 5091,
      "बदले": 5092,
      "तालमेल": 5093,
      "लाभार्थी": 5094,
      "तलाक": 5095,
      "सर्वश्रेष्ठ": 5096,
      "विविधता": 5097,
      "विमाग": 5098,
      "पोखरियाल": 5099,
      "णे": 5100,
      "ध्वज": 5101,
      "नग": 5102,
      "नमो": 5103,
      "मस्": 5104,
      "लहर": 5105,
      "िणी": 5106,
      "कोहरे": 5107,
      "सेतु": 5108,
      "र्थी": 5109,
      "क्षय": 5110,
      "नीट": 5111,
      "चास": 5112,
      "ल्तान": 5113,
      "शाल": 5114,
      "सुमन": 5115,
      "मेह": 5116,
      "पुण्य": 5117,
      "बेहत": 5118,
      "ठावन": 5119,
      "डालने": 5120,
      "तैंतालीस": 5121,
      "पैरा": 5122,
      "मार्गो": 5123,
      "हेल्थ": 5124,
      "पर्यटक": 5125,
      "जल्दी": 5126,
      "बढ़ोत्तरी": 5127,
      "तिरपन": 5128,
      "कोलकाता": 5129,
      "पिथौरागढ़": 5130,
      "अल्मोड़ा": 5131,
      "पिक": 5132,
      "प्रार्थ": 5133,
      "सेन्": 5134,
      "स्ख": 5135,
      "विंग": 5136,
      "राधा": 5137,
      "लिखे": 5138,
      "साक्षर": 5139,
      "सुभाष": 5140,
      "मीणा": 5141,
      "जीपुर": 5142,
      "खाद्": 5143,
      "स्ट्र": 5144,
      "जगदलपुर": 5145,
      "दरों": 5146,
      "श्रद्दा": 5147,
      "लाभान्वित": 5148,
      "पड़ो": 5149,
      "साहस": 5150,
      "खोला": 5151,
      "आकर्षक": 5152,
      "भक्तों": 5153,
      "प्रार्थना": 5154,
      "अत्या": 5155,
      "छप्": 5156,
      "जौन": 5157,
      "थर": 5158,
      "बम": 5159,
      "राहल": 5160,
      "सीख": 5161,
      "टीमें": 5162,
      "गेटिव": 5163,
      "बिर": 5164,
      "सिंहदेव": 5165,
      "हरसंभव": 5166,
      "डीएम": 5167,
      "उत्तरी": 5168,
      "दिवंगत": 5169,
      "ट्रि": 5170,
      "उच्चस्तरीय": 5171,
      "लंबी": 5172,
      "पॉजी": 5173,
      "गौतम": 5174,
      "युवकों": 5175,
      "बदलने": 5176,
      "ण्डी": 5177,
      "इलेक्ट्रॉ": 5178,
      "हेल्पलाइन": 5179,
      "गिरिडीह": 5180,
      "नेहरू": 5181,
      "अरोड़ा": 5182,
      "प्रसन्न": 5183,
      "आमदनी": 5184,
      "बेहतरी": 5185,
      "ंजी": 5186,
      "ईरानी": 5187,
      "उतार": 5188,
      "एशिया": 5189,
      "गम्": 5190,
      "तमाम": 5191,
      "तमिलना": 5192,
      "धवार": 5193,
      "पौर": 5194,
      "बजाय": 5195,
      "भगत": 5196,
      "मछ": 5197,
      "वही": 5198,
      "विन": 5199,
      "हिर": 5200,
      "अनुपालन": 5201,
      "तीसरा": 5202,
      "अगली": 5203,
      "बचाओ": 5204,
      "लालजी": 5205,
      "जरूरतमंद": 5206,
      "जमाव": 5207,
      "प्रखंडों": 5208,
      "सीबीएसई": 5209,
      "क्षतिग्रस्त": 5210,
      "चौरासी": 5211,
      "रक्तदान": 5212,
      "आखि": 5213,
      "कमान": 5214,
      "बत": 5215,
      "मत्": 5216,
      "नेगी": 5217,
      "हाउस": 5218,
      "मांगे": 5219,
      "सीआई": 5220,
      "शिखर": 5221,
      "सुल": 5222,
      "बिका": 5223,
      "कोंडा": 5224,
      "डीसी": 5225,
      "उपलक्ष्य": 5226,
      "ज़ार": 5227,
      "हिस्से": 5228,
      "मददगार": 5229,
      "रोधक": 5230,
      "पार्थि": 5231,
      "प्रतिनिधिमंडल": 5232,
      "अध्यापकों": 5233,
      "संभावित": 5234,
      "सत्यापन": 5235,
      "आगरमालवा": 5236,
      "पराजित": 5237,
      "इकस": 5238,
      "जलाने": 5239,
      "ानबे": 5240,
      "नाहन": 5241,
      "विकेट": 5242,
      "सावधान": 5243,
      "सुदृढ़": 5244,
      "मोबाई": 5245,
      "मानकों": 5246,
      "मेश्वर": 5247,
      "चौहत्तर": 5248,
      "सुरंग": 5249,
      "महापौर": 5250,
      "कॉम": 5251,
      "राष्ट्रपिता": 5252,
      "मार्गदर्शन": 5253,
      "दायरे": 5254,
      "बालक": 5255,
      "मुद्दा": 5256,
      "नानक": 5257,
      "बढ़ेगी": 5258,
      "रिटर्न": 5259,
      "स्पर्धा": 5260,
      "मायावती": 5261,
      "नैनीताल": 5262,
      "नर्मदा": 5263,
      "इकसठ": 5264,
      "मोबाईल": 5265,
      "अब्": 5266,
      "आते": 5267,
      "कमि": 5268,
      "गहरी": 5269,
      "ीकरण": 5270,
      "क्की": 5271,
      "दिल": 5272,
      "गाई": 5273,
      "मारकर": 5274,
      "मेहन": 5275,
      "सहयोगी": 5276,
      "चौंतीस": 5277,
      "दर्शा": 5278,
      "सोसाय": 5279,
      "छापा": 5280,
      "खुलने": 5281,
      "गरीबी": 5282,
      "ढांचे": 5283,
      "संशोधित": 5284,
      "मानवता": 5285,
      "अग्रिम": 5286,
      "हिंदी": 5287,
      "लाइट": 5288,
      "निकालने": 5289,
      "पियनशिप": 5290,
      "ल्यांकन": 5291,
      "विनोद": 5292,
      "मस्जि": 5293,
      "छप्पन": 5294,
      "पॉजीटिव": 5295,
      "पार्थिव": 5296,
      "अखि": 5297,
      "आसार": 5298,
      "आवेद": 5299,
      "कप": 5300,
      "क्यू": 5301,
      "रजि": 5302,
      "ारण": 5303,
      "विधिक": 5304,
      "विरूद्व": 5305,
      "बाधा": 5306,
      "मुम्बई": 5307,
      "रहकर": 5308,
      "चाहे": 5309,
      "म्म": 5310,
      "मेरा": 5311,
      "ग्रु": 5312,
      "चौवालीस": 5313,
      "जानकार": 5314,
      "बोकारो": 5315,
      "अबतक": 5316,
      "शेखर": 5317,
      "आपरा": 5318,
      "सबुक": 5319,
      "झालावा": 5320,
      "देवव्रत": 5321,
      "अलवर": 5322,
      "चैनल": 5323,
      "मोटरसाइकिल": 5324,
      "प्रोटोकॉल": 5325,
      "शिरकत": 5326,
      "अरवि": 5327,
      "आयात": 5328,
      "ईया": 5329,
      "नज": 5330,
      "फ्रे": 5331,
      "स्कृत": 5332,
      "वांग": 5333,
      "जाज": 5334,
      "मुद्रा": 5335,
      "सीहोर": 5336,
      "तेल": 5337,
      "रिमा": 5338,
      "आजम": 5339,
      "जनमंच": 5340,
      "चिंग": 5341,
      "चुने": 5342,
      "पीने": 5343,
      "खाड़ी": 5344,
      "कर्नल": 5345,
      "आरंभ": 5346,
      "गुमराह": 5347,
      "पिछड़ा": 5348,
      "एनसीसी": 5349,
      "वैक्सीनेशन": 5350,
      "केशव": 5351,
      "मताधिकार": 5352,
      "मंडियों": 5353,
      "फुट": 5354,
      "थुरा": 5355,
      "जौनपुर": 5356,
      "आपराधिक": 5357,
      "आती": 5358,
      "धर्": 5359,
      "पड़ी": 5360,
      "भौ": 5361,
      "मथुरा": 5362,
      "शू": 5363,
      "शता": 5364,
      "सवा": 5365,
      "ोह": 5366,
      "प्रकिया": 5367,
      "विरासत": 5368,
      "क्षो": 5369,
      "लीटर": 5370,
      "मिट": 5371,
      "धानिक": 5372,
      "योद्": 5373,
      "अनुसु": 5374,
      "डीआर": 5375,
      "लोकन": 5376,
      "सड़सठ": 5377,
      "शिवरात्रि": 5378,
      "अड़सठ": 5379,
      "आश्रय": 5380,
      "इंजीनिय": 5381,
      "उदा": 5382,
      "ऊंचाई": 5383,
      "टिया": 5384,
      "थर्": 5385,
      "धम": 5386,
      "ह्": 5387,
      "केत": 5388,
      "कान्": 5389,
      "कोण": 5390,
      "सेने": 5391,
      "वाड़ी": 5392,
      "देवास": 5393,
      "त्तम": 5394,
      "डाक्टर": 5395,
      "भूगतान": 5396,
      "जायेंगी": 5397,
      "खरीफ": 5398,
      "एफआईआर": 5399,
      "बांदी": 5400,
      "अफवा": 5401,
      "चाहती": 5402,
      "मांझी": 5403,
      "जिस्ट्रेशन": 5404,
      "ओडिशा": 5405,
      "गम्भीर": 5406,
      "अमल": 5407,
      "तभी": 5408,
      "नित": 5409,
      "यरी": 5410,
      "रजिस्ट्रेशन": 5411,
      "वचन": 5412,
      "काव": 5413,
      "नायक": 5414,
      "विश्": 5415,
      "विवरण": 5416,
      "विक्षो": 5417,
      "लेरिया": 5418,
      "भागिता": 5419,
      "उनसठ": 5420,
      "पेपर": 5421,
      "एंटी": 5422,
      "टिफि": 5423,
      "फैल": 5424,
      "खंडपीठ": 5425,
      "यूपी": 5426,
      "बुद्ध": 5427,
      "कलेक्टरों": 5428,
      "अपराधों": 5429,
      "पीड़ितों": 5430,
      "छियासी": 5431,
      "नवीन": 5432,
      "सवेरा": 5433,
      "रजिस्टर": 5434,
      "ऑफि": 5435,
      "घान": 5436,
      "जहा": 5437,
      "नयी": 5438,
      "बलिया": 5439,
      "र्जर": 5440,
      "संगोष्ठी": 5441,
      "जिकल": 5442,
      "जनप्रतिनिधियों": 5443,
      "कार्ययोजना": 5444,
      "अनू": 5445,
      "प्लान": 5446,
      "पीली": 5447,
      "लगाना": 5448,
      "वर्षीय": 5449,
      "शुक्रवार": 5450,
      "पैं": 5451,
      "बुन": 5452,
      "वृक्ष": 5453,
      "लंबे": 5454,
      "ज्यादातर": 5455,
      "अभिय": 5456,
      "छोटी": 5457,
      "जनसभाओं": 5458,
      "चाहता": 5459,
      "चोरी": 5460,
      "ज्योति": 5461,
      "हंगामा": 5462,
      "जोगी": 5463,
      "स्खलन": 5464,
      "प्रसन्नता": 5465,
      "कोंडागांव": 5466,
      "अखिलेश": 5467,
      "चढ़": 5468,
      "जरी": 5469,
      "नकद": 5470,
      "वण": 5471,
      "सतीश": 5472,
      "सत्ती": 5473,
      "ोई": 5474,
      "्क्त": 5475,
      "प्रकृति": 5476,
      "संवै": 5477,
      "एकड़": 5478,
      "हैंड": 5479,
      "सिडी": 5480,
      "बैड": 5481,
      "लोजपा": 5482,
      "सहभागिता": 5483,
      "स्ट्री": 5484,
      "डाल": 5485,
      "धरना": 5486,
      "शुन्य": 5487,
      "भवनों": 5488,
      "सतहत्तर": 5489,
      "प्रस्तुति": 5490,
      "समझौते": 5491,
      "आयुर्वेद": 5492,
      "आंकड़ा": 5493,
      "लगवाने": 5494,
      "यूनिट": 5495,
      "आवंटित": 5496,
      "आनंदीबेन": 5497,
      "इंद्र": 5498,
      "ईई": 5499,
      "गर्म": 5500,
      "बकाया": 5501,
      "मधे": 5502,
      "रॉ": 5503,
      "यानि": 5504,
      "कोहरा": 5505,
      "प्रभाग": 5506,
      "प्रशंसा": 5507,
      "विटी": 5508,
      "लेटर": 5509,
      "संज्ञान": 5510,
      "साध": 5511,
      "हीन": 5512,
      "मुंडा": 5513,
      "बंट": 5514,
      "पुस्तक": 5515,
      "प्रतिक्रिया": 5516,
      "बैंकिंग": 5517,
      "खाद": 5518,
      "अवलोकन": 5519,
      "बेटियों": 5520,
      "जुटे": 5521,
      "पैसा": 5522,
      "पैदल": 5523,
      "फीसदी": 5524,
      "अर्जुन": 5525,
      "निवेशकों": 5526,
      "बचत": 5527,
      "अहमदाबाद": 5528,
      "श्रोता": 5529,
      "प्रकरणों": 5530,
      "सीतारामन": 5531,
      "गोगोई": 5532
    },
    "merges": [
      "् र",
      "क े",
      "ा र",
      "न े",
      "े ं",
      "ो ं",
      "य ा",
      "म ें",
      "ह ै",
      "् य",
      "क ी",
      "क ि",
      "क ा",
      "क ो",
      "प ्र",
      "स े",
      "र ्",
      "ा न",
      "स ्",
      "क र",
      "क ्",
      "न ा",
      "व ि",
      "र ा",
      "व ा",
      "औ र",
      "त ा",
      "त ्र",
      "ल ा",
      "ह ा",
      "क ार",
      "प र",
      "न ्",
      "द े",
      "ल ि",
      "ल े",
      "ज ा",
      "ि त",
      "न ि",
      "क् ष",
      "म ा",
      "स ं",
      "म ं",
      "स ा",
      "इ स",
      "दे श",
      "ह ी",
      "भ ी",
      "त ि",
      "ो ग",
      "द ि",
      "मं त्र",
      "य े",
      "प ा",
      "क हा",
      "भ ा",
      "त ी",
      "मंत्र ी",
      "ग ा",
      "ज ि",
      "ु र",
      "ड ़",
      "ब ा",
      "म ु",
      "रा ज",
      "त ्",
      "स् थ",
      "कि या",
      "य ों",
      "द ी",
      "स म",
      "स र",
      "लि ए",
      "ह ो",
      "ल ी",
      "ध ि",
      "ए क",
      "स ी",
      "र ी",
      "ह ु",
      "द ्र",
      "उ न्",
      "द ्",
      "त े",
      "है ं",
      "म ि",
      "ह ों",
      "ं ग",
      "स ि",
      "र ो",
      "् ट",
      "मु ख",
      "्र ी",
      "ध ान",
      "य ो",
      "र ह",
      "हों ने",
      "न ी",
      "उन् होंने",
      "राज ्य",
      "च ा",
      "क ्र",
      "ग या",
      "प ू",
      "ल ्",
      "श ा",
      "प्र देश",
      "ार ी",
      "ओ ं",
      "र ि",
      "श ि",
      "स ु",
      "कर ने",
      "आ ज",
      "ज न",
      "द ा",
      "ल ोग",
      "व ार",
      "कार ्य",
      "च ार",
      "सर कार",
      "नि र्",
      "मुख ्य",
      "अ धि",
      "र ू",
      "अ प",
      "् या",
      "ढ ़",
      "न् द्र",
      "द ो",
      "ह ि",
      "म ी",
      "ही ं",
      "र े",
      "ि यों",
      "अ न",
      "व े",
      "प ुर",
      "सा थ",
      "ब ी",
      "ं च",
      "क्ष ा",
      "ट ी",
      "ज ी",
      "ग ी",
      "त र",
      "ल ों",
      "यो ज",
      "लोग ों",
      "म ार",
      "भ ार",
      "ौ र",
      "ष ्ट",
      "व ी",
      "क्र म",
      "ि या",
      "ध ्य",
      "श ्",
      "म ो",
      "मुख्य मंत्री",
      "त क",
      "ं ड",
      "श ्री",
      "व र्",
      "ग े",
      "क्ष े",
      "क ल",
      "म ान",
      "जि ले",
      "क्षे त्र",
      "उ प",
      "ब ं",
      "ब ार",
      "क ु",
      "रह े",
      "ब ता",
      "म ्",
      "भा ग",
      "य ोग",
      "म े",
      "ल य",
      "प ु",
      "बा द",
      "हु ए",
      "प ह",
      "बता या",
      "पर ि",
      "ज ार",
      "च ि",
      "स ौ",
      "प्र धान",
      "उ न",
      "स भी",
      "प्र ति",
      "दि या",
      "च ्",
      "म ौ",
      "ब ि",
      "कार ी",
      "पू र्",
      "ग ई",
      "व ्य",
      "य ह",
      "ब ै",
      "र ही",
      "च ु",
      "जा ए",
      "क ों",
      "प्रधान मंत्री",
      "थ ा",
      "ल ो",
      "ट र",
      "श न",
      "य ु",
      "को रो",
      "कोरो ना",
      "ह जार",
      "न हीं",
      "के न्द्र",
      "प ्",
      "प ी",
      "प ार",
      "ध ा",
      "योज ना",
      "ब ना",
      "र हा",
      "इ न",
      "ग ्र",
      "सि ं",
      "ब र",
      "ख ा",
      "स भा",
      "द ौर",
      "पा ल",
      "्र े",
      "न ों",
      "ह ोग",
      "स मा",
      "स ार",
      "बं ध",
      "क् त",
      "ग र",
      "ान ों",
      "रा ष्ट",
      "क ृ",
      "ि क",
      "अन ु",
      "ी य",
      "ट े",
      "द ू",
      "ब ्",
      "सिं ह",
      "ह र",
      "स् वा",
      "ब ढ़",
      "स् त",
      "रू प",
      "अ व",
      "वि भाग",
      "ल गा",
      "वार ा",
      "स ह",
      "दौर ान",
      "मि ल",
      "भ ि",
      "हो ने",
      "लि स",
      "न् न",
      "मा म",
      "च ौ",
      "ज ो",
      "ड ि",
      "मो दी",
      "स्थ ा",
      "य ी",
      "ती न",
      "द ान",
      "ें गे",
      "कार्य क्रम",
      "ध्य क्ष",
      "ब े",
      "वि का",
      "क र्",
      "इस के",
      "ुर ू",
      "अ ं",
      "प्र ा",
      "अप ने",
      "स ू",
      "श ्र",
      "विका स",
      "सम ्",
      "श ी",
      "द र्",
      "स् व",
      "ट ना",
      "ठ ा",
      "व न",
      "ज ान",
      "रा म",
      "द् वारा",
      "ण ा",
      "ना व",
      "स्वा स्थ",
      "ध ार",
      "वा ले",
      "ज ारी",
      "ह त",
      "ब ो",
      "स्वास्थ ्य",
      "पु लिस",
      "भार त",
      "बै ठ",
      "अ ध्यक्ष",
      "जि ला",
      "कि स",
      "ड ी",
      "उ त्",
      "स द",
      "च् च",
      "स ुर",
      "ड़ ी",
      "कर ते",
      "ष ्",
      "जा ये",
      "ध ी",
      "गा ं",
      "क ता",
      "म त",
      "अधि क",
      "ं द्र",
      "निर् देश",
      "स् ट",
      "बैठ क",
      "प ि",
      "र ख",
      "च ल",
      "स्थ ित",
      "का श",
      "ज य",
      "अ ब",
      "म ह",
      "्ट ी",
      "श ुरू",
      "को वि",
      "श े",
      "ल ग",
      "लि ये",
      "प े",
      "वर् ष",
      "द ्य",
      "्री य",
      "व हीं",
      "ला ख",
      "ज े",
      "ड ा",
      "अन ्य",
      "क्ष ण",
      "ती स",
      "पा ंच",
      "स ो",
      "ती य",
      "कर ा",
      "भि न्न",
      "ान ा",
      "क ई",
      "प ो",
      "ड़ ा",
      "वि भिन्न",
      "चु नाव",
      "आ ई",
      "प त्र",
      "ान ी",
      "म हा",
      "ज ्",
      "कर ण",
      "वि धा",
      "ए स",
      "ट ा",
      "हु ई",
      "का ंग",
      "अधि कार",
      "य र",
      "ं द",
      "अ भ",
      "का म",
      "ं क",
      "श् व",
      "क् ति",
      "ध न",
      "योज ित",
      "अव सर",
      "पार ्टी",
      "स के",
      "ग त",
      "ख ि",
      "वि धान",
      "ह ार",
      "त ार",
      "होग ा",
      "बा त",
      "सं क्रम",
      "ज पा",
      "द ु",
      "कोवि ड",
      "र ण",
      "ग ो",
      "ए ं",
      "कु मार",
      "न् या",
      "् ड",
      "आ योजित",
      "ी क्षा",
      "ज ब",
      "ज ु",
      "सं बंध",
      "पह ले",
      "राष्ट ्रीय",
      "प र्",
      "के ंद्र",
      "नि क",
      "ण ी",
      "भा जपा",
      "शे ष",
      "क म",
      "लि या",
      "घ ा",
      "लो क",
      "ता ओं",
      "स् क",
      "म ू",
      "दि न",
      "थ े",
      "्रे स",
      "त ै",
      "जाए गा",
      "शा स",
      "व्य व",
      "ट ि",
      "ि र",
      "कांग ्रेस",
      "ड ॉ",
      "भ र",
      "ज ू",
      "दि व",
      "प ं",
      "ग यी",
      "छ ा",
      "त हत",
      "स् प",
      "जा ने",
      "वि शेष",
      "माम ले",
      "च ी",
      "पूर् व",
      "प टना",
      "म हि",
      "स्थ ान",
      "ग ए",
      "भ ू",
      "िया न",
      "उप ल",
      "त था",
      "ग्र ा",
      "फ ्",
      "ग ये",
      "वा ई",
      "आ र",
      "महि ला",
      "थ ी",
      "ख ्या",
      "क् टर",
      "प् त",
      "जान कारी",
      "ज ल",
      "ले कर",
      "अभ ियान",
      "व ै",
      "किस ानों",
      "बी च",
      "ल न",
      "या लय",
      "म न",
      "दे ने",
      "ड़ े",
      "उपल ब्",
      "वा द",
      "ष ि",
      "श ो",
      "कि ए",
      "स चि",
      "्य ू",
      "क ल्",
      "जा ंच",
      "ना थ",
      "ज् ञ",
      "भार तीय",
      "र् थ",
      "ध र",
      "च ित",
      "अधिकार ियों",
      "सह ित",
      "श ु",
      "ो ड़",
      "र् ट",
      "गां व",
      "व्यव स्था",
      "च ना",
      "ध ित",
      "से वा",
      "सं ख्या",
      "सम य",
      "शा मिल",
      "रे न्द्र",
      "भा व",
      "नि य",
      "बी स",
      "प ै",
      "यु क्त",
      "ा लय",
      "ए म",
      "क ॉ",
      "शि क्षा",
      "उ पा",
      "जि स",
      "फ ै",
      "समा चार",
      "विधान सभा",
      "ज ग",
      "य ार",
      "ह न",
      "ग ढ़",
      "ग ठ",
      "ध्य म",
      "न ौ",
      "होग ी",
      "ख े",
      "रि या",
      "म ारी",
      "ह ें",
      "ट ्र",
      "वि श्व",
      "ग ु",
      "त् व",
      "न ई",
      "आ प",
      "कि ये",
      "द र",
      "राष्ट ्र",
      "हा ं",
      "कार ण",
      "य क",
      "सा त",
      "मंत्र ालय",
      "उपलब् ध",
      "म री",
      "त ो",
      "स ब",
      "ल् ली",
      "क्षेत्र ों",
      "सचि व",
      "मौ सम",
      "श ्य",
      "त ्य",
      "पूर् ण",
      "जाये गा",
      "मा ण",
      "सुर क्षा",
      "प हु",
      "बढ़ ा",
      "स क",
      "कर ेंगे",
      "कृ षि",
      "जि लों",
      "ष् ठ",
      "पि छ",
      "नी ति",
      "दि ल्ली",
      "न रेन्द्र",
      "स् तर",
      "व ं",
      "हु आ",
      "ख ंड",
      "का न",
      "घ ो",
      "स र्",
      "घ र",
      "आ काश",
      "वा णी",
      "ि श",
      "ं त्र",
      "अ स्प",
      "ट न",
      "अस्प ता",
      "रा य",
      "मार ्",
      "ग ं",
      "ंग े",
      "प ति",
      "केन्द्र ीय",
      "पा स",
      "य ू",
      "न गर",
      "ध ्या",
      "ब ु",
      "प्र सार",
      "उन के",
      "को ई",
      "व ान",
      "म ै",
      "इ ं",
      "मरी ज",
      "आकाश वाणी",
      "बार िश",
      "वा स",
      "मा ध्यम",
      "ख बर",
      "य त",
      "इ ला",
      "यो जन",
      "स ै",
      "वि द्",
      "उन् हें",
      "बो धित",
      "शास न",
      "रे ल",
      "अनु सार",
      "फ ा",
      "कर ना",
      "कर ोड़",
      "संक्रम ण",
      "ार ्",
      "वा ली",
      "कि सी",
      "आ ठ",
      "त् या",
      "ने ता",
      "त रह",
      "खि ला",
      "स ला",
      "चा हि",
      "अ ग",
      "आ व",
      "ज रू",
      "प द",
      "ब ह",
      "तै यार",
      "पिछ ले",
      "ड ल",
      "म ला",
      "पर ीक्षा",
      "ह मार",
      "ज ै",
      "स्थ ानों",
      "रूप ये",
      "ला ई",
      "बना ने",
      "दिव स",
      "झ ा",
      "क ै",
      "प्र भा",
      "आ योजन",
      "य न",
      "द स",
      "अप नी",
      "प क्ष",
      "सु विधा",
      "छ ह",
      "ग िर",
      "घो ष",
      "च न",
      "राज्य पाल",
      "प्र मुख",
      "ज ़",
      "प्र या",
      "ए न",
      "म ना",
      "इस से",
      "अधि कारी",
      "निर् माण",
      "प्र े",
      "बार े",
      "त्र ा",
      "ब ल",
      "ट ों",
      "सा ं",
      "दे ख",
      "र ु",
      "चाहि ए",
      "आ योग",
      "भ ो",
      "ला वा",
      "राज्य ों",
      "ू न",
      "ह म",
      "ज र",
      "ट ्",
      "ड े",
      "स ्य",
      "दि ए",
      "ब च्च",
      "आ रो",
      "मि ले",
      "जन ता",
      "हमार े",
      "निर् वा",
      "कर े",
      "च् छ",
      "स ड़",
      "ल ॉ",
      "क ुर",
      "टी का",
      "वि त",
      "पाल न",
      "श त",
      "श्र द्",
      "रो क",
      "आव श्य",
      "प ित",
      "डॉ क्टर",
      "ग ू",
      "आ ने",
      "मत दान",
      "का ं",
      "अ लावा",
      "सू चना",
      "त म",
      "बि हार",
      "व र",
      "ठा कुर",
      "म द",
      "पू री",
      "व्य क्ति",
      "च रण",
      "दा ता",
      "ब न",
      "सं वाद",
      "ओ र",
      "र् चा",
      "उ च्च",
      "्र ा",
      "द ल",
      "आ धार",
      "क्ष ित",
      "कु छ",
      "ार ो",
      "जाए गी",
      "सं बोधित",
      "ी ल",
      "स्क ू",
      "अ लग",
      "ल ू",
      "ष ण",
      "प्रति शत",
      "ए वं",
      "सद स्य",
      "पं चा",
      "ण ्ड",
      "ह े",
      "च े",
      "मौ त",
      "ना ग",
      "म ित",
      "स्थित ि",
      "कि त्",
      "जब कि",
      "ग ति",
      "पो र्ट",
      "ली स",
      "द् ध",
      "क्ष क",
      "त् तर",
      "उ द्",
      "खिला फ",
      "मी ण",
      "ित ि",
      "चि कित्",
      "प्र काश",
      "आ त",
      "मौ के",
      "उ स",
      "्या लय",
      "ग्रा मीण",
      "भ े",
      "धि यों",
      "ब चा",
      "दर् शन",
      "दि ये",
      "प्र शासन",
      "कर् म",
      "दू सर",
      "घ टना",
      "ना म",
      "पहु ंच",
      "निर्वा चन",
      "प्रया स",
      "द्य ोग",
      "त् म",
      "व ्या",
      "लोक सभा",
      "त् तीस",
      "र् ड",
      "कृ ति",
      "भ ग",
      "मं डल",
      "भ ारी",
      "सम ारो",
      "ज्ञ ान",
      "स् ता",
      "त र्",
      "द न",
      "ह ित",
      "फ ी",
      "व ो",
      "म ल",
      "राष्ट्र पति",
      "अप ील",
      "र त",
      "वा ल",
      "व ल",
      "क् सी",
      "शि मला",
      "सब से",
      "जा ग",
      "दू र",
      "अस्पता ल",
      "मह त्व",
      "य ल",
      "समारो ह",
      "योग ी",
      "नि श्",
      "हि मा",
      "दि शा",
      "जा य",
      "ार ह",
      "गिर फ्",
      "यु वा",
      "व रि",
      "भाव ना",
      "का ल",
      "विद् यालय",
      "फ ि",
      "वा यर",
      "म ृ",
      "श ल",
      "म र",
      "स त्र",
      "र् ष",
      "जाग रू",
      "च र्चा",
      "क् स",
      "माम लों",
      "योजना ओं",
      "ग ृ",
      "थ ाना",
      "न ो",
      "वरि ष्ठ",
      "धान ी",
      "थ ियों",
      "घ ं",
      "या द",
      "उन की",
      "ता प",
      "किस ान",
      "इ धर",
      "च ला",
      "कर ें",
      "ार ा",
      "निश् चित",
      "क ं",
      "गां धी",
      "सक ते",
      "फ र",
      "क स",
      "ं गा",
      "वे श",
      "ह रा",
      "या ण",
      "वि चार",
      "नाग रि",
      "जी वन",
      "सम् मान",
      "जाये गी",
      "वायर स",
      "कल् याण",
      "े श",
      "म् मी",
      "रा त",
      "पंचा यत",
      "ब जे",
      "आरो प",
      "नी स",
      "महा मारी",
      "ची त",
      "नि या",
      "उन् नीस",
      "मा ंग",
      "अ र्",
      "वि द्य",
      "बात चीत",
      "परि वार",
      "बच्च ों",
      "लॉ क",
      "उ म्मी",
      "ख ु",
      "क्र िया",
      "न ये",
      "कि न",
      "त् त",
      "छ त्तीस",
      "न्या यालय",
      "दि नों",
      "मरीज ों",
      "दर् ज",
      "िया ं",
      "समा ज",
      "सा म",
      "बंध न",
      "स् टे",
      "ग्र ह",
      "गृ ह",
      "उ ठा",
      "इस ी",
      "ग म",
      "व ृ",
      "ख न",
      "प ट",
      "अप ना",
      "ब ज",
      "करा ने",
      "सम ीक्षा",
      "ल ं",
      "धि कारी",
      "मि क",
      "संक्रम ित",
      "केंद्र ीय",
      "उम्मी द",
      "प न",
      "घोष णा",
      "कर ी",
      "प ानी",
      "ई स",
      "हिमा चल",
      "टी म",
      "सरकार ी",
      "द ार",
      "ह री",
      "गिरफ् तार",
      "श र्",
      "वि ष",
      "ष्ट ि",
      "भू मि",
      "ें द्र",
      "सम स्",
      "ख ी",
      "रख ने",
      "सम िति",
      "दि र",
      "स हा",
      "डि यो",
      "द ै",
      "स्व स्थ",
      "उत् तर",
      "ला इन",
      "ग ्",
      "ट ्रे",
      "न र",
      "राज धानी",
      "रो जग",
      "उत् पा",
      "संबंध ित",
      "क द",
      "ध े",
      "् व",
      "दै निक",
      "ि ता",
      "सु बह",
      "कल् प",
      "डा उन",
      "सड़ क",
      "पू रा",
      "अग ले",
      "सा ल",
      "स् कार",
      "निर् ण",
      "त् ता",
      "ं चा",
      "चौ बीस",
      "पर ्य",
      "ो ल",
      "ग ि",
      "हि स्",
      "ला भ",
      "सुर क्षित",
      "आ स",
      "थ ि",
      "फ ो",
      "रह ने",
      "सि ल",
      "र ै",
      "सु निश्चित",
      "मौ जू",
      "दो नों",
      "गठ न",
      "श हर",
      "कार ्र",
      "ं त",
      "आ देश",
      "निर्ण य",
      "त री",
      "ल त",
      "ट ल",
      "आवश्य क",
      "ग री",
      "कार्र वाई",
      "म ही",
      "प्रा प्त",
      "सां सद",
      "रोजग ार",
      "मार् ग",
      "फ ल",
      "ला ल",
      "प्रभा वित",
      "छा त्र",
      "रा व",
      "पह ली",
      "लगा तार",
      "विधा यक",
      "प्र ो",
      "स कता",
      "मं दिर",
      "बं द",
      "जय राम",
      "महिला ओं",
      "ं ज",
      "क ट",
      "द ों",
      "द ित",
      "सु र्",
      "महत्व पूर्ण",
      "दू री",
      "द श",
      "बज ट",
      "शर् मा",
      "कान ून",
      "वा सी",
      "बे ह",
      "ख री",
      "ब ड़ी",
      "म ति",
      "प्र दान",
      "चिकित् सा",
      "प् ता",
      "मद द",
      "शा ला",
      "ला गू",
      "न दी",
      "न्या य",
      "रा शि",
      "टीका करण",
      "ते ज",
      "छत्तीस गढ़",
      "ज ल्",
      "सि ंग",
      "फै सला",
      "ले किन",
      "व री",
      "बै ंक",
      "जि क",
      "प क",
      "इस में",
      "देश क",
      "रु प",
      "ं स",
      "हों गे",
      "या त्रा",
      "फ िर",
      "अ ति",
      "ल खन",
      "जि न",
      "कार ्यालय",
      "लग भग",
      "ग ्री",
      "ड िया",
      "अध्यक्ष ता",
      "स ें",
      "आ म",
      "ला ने",
      "लगा या",
      "तर् गत",
      "सं चा",
      "प्र त्या",
      "कु ल",
      "न ्यू",
      "सी मा",
      "ह रिया",
      "से ना",
      "मू ल",
      "ल यों",
      "सा मा",
      "ग ण",
      "मा स्क",
      "शि व",
      "दे व",
      "प्रसार ण",
      "आ ं",
      "शि क्षण",
      "्या दा",
      "न व",
      "र् म",
      "ध्या न",
      "दित ्य",
      "मान ्य",
      "सह योग",
      "बना या",
      "राय पुर",
      "मि यों",
      "बना ए",
      "लखन ऊ",
      "फ स",
      "देख ते",
      "सामा जिक",
      "ज रि",
      "दे ते",
      "विद्य ार्",
      "इ ंड",
      "ज ्यादा",
      "त न",
      "ं भ",
      "य ता",
      "बचा व",
      "प्र क्रिया",
      "क् ट",
      "सं देश",
      "निय म",
      "फ े",
      "ग्रा म",
      "ंक न",
      "व्य क्त",
      "कद म",
      "त ंत्र",
      "मा ल",
      "मही ने",
      "त ल",
      "स व",
      "क्र ि",
      "जरू री",
      "द ौ",
      "ताप मान",
      "प श्",
      "दु र्",
      "ब हु",
      "लॉक डाउन",
      "प ण",
      "मह ान",
      "इ से",
      "ऑ न",
      "समस् या",
      "ए फ",
      "अप रा",
      "सु न",
      "प्रा थ",
      "जल् द",
      "जिस से",
      "ज हां",
      "स ों",
      "ले ने",
      "सं भावना",
      "न जर",
      "ं ता",
      "स्व च्छ",
      "उम्मीद वार",
      "ज ता",
      "दि यों",
      "भ वन",
      "बेह तर",
      "हरिया णा",
      "दा ताओं",
      "पर् या",
      "श क्ति",
      "सा द",
      "नि जी",
      "सम् मे",
      "अ भि",
      "जरू रत",
      "परि ष",
      "र खा",
      "सि यों",
      "म ध्य",
      "ति म",
      "पू रे",
      "मी डिया",
      "पे श",
      "संवाद दाता",
      "ना मा",
      "ले ज",
      "इस का",
      "देश ्य",
      "रा हत",
      "प्रति नि",
      "वा लों",
      "राज नीति",
      "आ र्थ",
      "रि पोर्ट",
      "भो पाल",
      "सम्मे लन",
      "जिस में",
      "प चा",
      "प्र चार",
      "आ दित्य",
      "समा प्त",
      "त ु",
      "कार्य कर्",
      "स्थान ीय",
      "ता कि",
      "दा य",
      "अ न्",
      "रेल वे",
      "हा ल",
      "शो क",
      "दूसर े",
      "स् कृति",
      "अं तर",
      "सं र",
      "मि ली",
      "प्र स्ता",
      "बार ह",
      "धि कार",
      "जो र",
      "उ धर",
      "ह त्तर",
      "वि त्त",
      "बा ढ़",
      "य हां",
      "सम र्थ",
      "याद व",
      "बि ज",
      "सु धार",
      "अं तिम",
      "भ व",
      "स रा",
      "जा ता",
      "वी ं",
      "त ृ",
      "प्र साद",
      "पर् क",
      "ग र्",
      "जी त",
      "आर्थ िक",
      "र क्षा",
      "बो र्ड",
      "इ न्",
      "ग ौर",
      "स त",
      "उपा यों",
      "आदित्य नाथ",
      "नामा ंकन",
      "अ धी",
      "खि ल",
      "प दा",
      "मौजू द",
      "स् वी",
      "न ए",
      "या न",
      "वर् ग",
      "ऐ से",
      "द ारी",
      "वी डियो",
      "वै क्सी",
      "त्र ि",
      "नि पट",
      "मल व",
      "र ोग",
      "करा या",
      "नि गम",
      "सम े",
      "खे ल",
      "शा म",
      "त रा",
      "ब ्र",
      "व ें",
      "ौ ल",
      "री य",
      "आ गा",
      "स्त रीय",
      "जागरू कता",
      "इ क्",
      "ह ान",
      "दश मलव",
      "र् फ",
      "ति या",
      "वर्ष ा",
      "मं जू",
      "स्कू ल",
      "व ह",
      "चार ियों",
      "वि पक्ष",
      "हु ये",
      "सं कल्प",
      "म् बर",
      "पूर् ति",
      "सहा यता",
      "क मी",
      "पत्र कार",
      "कर्म चारियों",
      "म् प",
      "नि का",
      "सि क",
      "मी र",
      "परिष द",
      "आ यु",
      "ग ्य",
      "करे गी",
      "बिज ली",
      "साम ने",
      "ठ ी",
      "मना या",
      "फ ्र",
      "श ं",
      "उद् देश्य",
      "जा गर",
      "दर् श",
      "ु ओं",
      "वा सियों",
      "ष ा",
      "ंच ी",
      "गं ज",
      "कर् मियों",
      "शी र्ष",
      "विश्व विद्यालय",
      "पश् चि",
      "उ द्योग",
      "व रण",
      "ग्य ारह",
      "व हन",
      "ब द",
      "भ र्",
      "अ दा",
      "स्था पित",
      "पचा स",
      "च ान",
      "ह ल्",
      "प्र त्य",
      "युवा ओं",
      "वि देश",
      "कॉ लेज",
      "र वि",
      "े क",
      "प ॉ",
      "पर् व",
      "इला ज",
      "आगा मी",
      "अ ल",
      "क ले",
      "प ड़",
      "वि तर",
      "जाए ंगे",
      "इन में",
      "कार ्ड",
      "बढ़ा ने",
      "विद्यार् थियों",
      "आ गे",
      "कृ त",
      "पत्र ों",
      "उ ल्",
      "द् व",
      "शा ह",
      "स दी",
      "र् स",
      "घा टन",
      "झ ार",
      "श ही",
      "समे त",
      "जान ा",
      "इला कों",
      "उप योग",
      "स फल",
      "प्र शिक्षण",
      "ं कि",
      "ढ ा",
      "ल क्ष",
      "कर वा",
      "ला स",
      "प थ",
      "समर्थ न",
      "स् ते",
      "भर् ती",
      "मंत्र ि",
      "टि व",
      "गरी ब",
      "ब ू",
      "निय ंत्र",
      "पर्य टन",
      "ं ति",
      "सी ट",
      "मे डि",
      "ग ै",
      "पुर स्कार",
      "अं तर्गत",
      "सा इ",
      "मी टर",
      "ख ्य",
      "आ य",
      "ल ै",
      "की य",
      "त्र ी",
      "ड ्",
      "म जब",
      "क् ता",
      "वा ह",
      "वे दन",
      "लगा ने",
      "रि क्त",
      "स्त ान",
      "अस्पता लों",
      "बा ल",
      "वैक्सी न",
      "ल ें",
      "परि योजना",
      "गति वि",
      "प्रस्ता व",
      "प्र वेश",
      "वी ट",
      "द लों",
      "लि त",
      "मु द्",
      "रा ब",
      "ज वा",
      "के श",
      "क ू",
      "वा ही",
      "प्रसार ित",
      "ंज लि",
      "वा ज",
      "पहु ंचा",
      "अनु मति",
      "लि ख",
      "लि खा",
      "मजब ू",
      "सं युक्त",
      "अ भी",
      "सं घ",
      "हा थ",
      "का फी",
      "सदस्य ों",
      "म ॉ",
      "ने ट",
      "करी ब",
      "क ड़ी",
      "स ठ",
      "पू र",
      "आ ए",
      "सा ह",
      "शी ल",
      "भी र",
      "प्राथ मि",
      "ग ार",
      "क्ष कों",
      "उन का",
      "मूल ्य",
      "क ौ",
      "ख ्",
      "सुर् खी",
      "ह ए",
      "वा ला",
      "ल पुर",
      "आ ग्रह",
      "आ पूर्ति",
      "घं टों",
      "अधी क्षक",
      "में ट",
      "मा ओ",
      "सक ती",
      "रख ें",
      "नर ेंद्र",
      "इंड िया",
      "मार् च",
      "वा दी",
      "द ृ",
      "ब ने",
      "मंजू री",
      "अ नि",
      "ब स",
      "ला व",
      "मा ह",
      "उपा युक्त",
      "जै से",
      "महान ि",
      "बा ं",
      "अदा लत",
      "वार ्",
      "न ु",
      "स प्ता",
      "जग ह",
      "बा जार",
      "श्रद् धा",
      "द ह",
      "परि वहन",
      "वि र",
      "रहे गा",
      "प्रति योग",
      "वि ज्ञान",
      "बा हर",
      "फ्र ें",
      "इ क",
      "वि स्त",
      "मेडि कल",
      "ह ना",
      "त ों",
      "सम ू",
      "प्रकाश ित",
      "ते जी",
      "रुप ये",
      "बहु त",
      "ख ो",
      "सला ह",
      "पर ी",
      "शुरू आत",
      "सप्ता ह",
      "कले क्टर",
      "स मु",
      "के वल",
      "मि शन",
      "निपट ने",
      "क ला",
      "श ्रे",
      "चु के",
      "भ ु",
      "श् वास",
      "प्रत्या शी",
      "रा ंची",
      "ज़ ि",
      "म ता",
      "ती श",
      "को र्ट",
      "संर क्षण",
      "प्र बंधन",
      "प्रे स",
      "तल ब",
      "च ं",
      "ब ित",
      "देश ों",
      "सं शो",
      "हा ला",
      "ट ो",
      "प्र दर्शन",
      "बना ये",
      "काम ना",
      "जाय ेंगे",
      "सी टों",
      "सं गठन",
      "सं स्थान",
      "सं सदी",
      "रै ली",
      "संसदी य",
      "बढ़ा वा",
      "रोक ने",
      "आ त्म",
      "च ै",
      "चौ हान",
      "पह चान",
      "तृ त्व",
      "छ ो",
      "व धान",
      "ने क",
      "जय पुर",
      "ज मा",
      "केन्द्र ों",
      "शु भार",
      "ज फ्",
      "सं स्था",
      "चौ दह",
      "श्व र",
      "घा यल",
      "जा व",
      "जफ् फर",
      "सा फ",
      "द् धि",
      "वा प",
      "नि गर",
      "सा मान्य",
      "करे गा",
      "निगर ानी",
      "टी न",
      "झार खंड",
      "आ वास",
      "उ द",
      "मिल ने",
      "प्रतियोग िता",
      "पं जी",
      "अ नेक",
      "हि न्",
      "मत दाता",
      "निर् धार",
      "आ ह",
      "पा त",
      "प्रत्य ेक",
      "कार्यकर् ताओं",
      "जिला धिकारी",
      "आ ये",
      "या ं",
      "बा इ",
      "ल् क",
      "खरी द",
      "राजनीति क",
      "घ े",
      "म ज",
      "अति रिक्त",
      "भा गी",
      "मु जफ्फर",
      "ठ ारह",
      "ने तृत्व",
      "म् स",
      "क्ष ि",
      "सो ल",
      "इस की",
      "शीर्ष क",
      "सी य",
      "गं भीर",
      "न तम",
      "सद न",
      "र् जा",
      "लक्ष ्य",
      "वि धे",
      "सु झा",
      "स क्रि",
      "स् कर",
      "ध री",
      "जवा ब",
      "नि री",
      "गौर तलब",
      "ति यों",
      "बि ना",
      "संबंध ी",
      "ध र्म",
      "राज ी",
      "रो ध",
      "ने ताओं",
      "सुन वाई",
      "के ट",
      "प्र ै",
      "अ मित",
      "हो कर",
      "लि का",
      "ने ं",
      "ष्ट ्रीय",
      "या चि",
      "्व ज",
      "ब नी",
      "ऑ फ",
      "प ौ",
      "ति हा",
      "बा ग",
      "ए ल",
      "व ानों",
      "ट् वीट",
      "्रा ष्ट्रीय",
      "प ना",
      "प त्",
      "ज ें",
      "दि खा",
      "प्रे र",
      "प न्न",
      "जन जा",
      "विद् या",
      "वि जय",
      "गं गा",
      "वी र",
      "धी श",
      "न वा",
      "वि क",
      "ंड ा",
      "मे ले",
      "कस ान",
      "याचि का",
      "चु ना",
      "ट्रे न",
      "स्वच्छ ता",
      "न्या या",
      "द वा",
      "सं पर्क",
      "त ारी",
      "ब धा",
      "टे ल",
      "उ सके",
      "मिले गी",
      "अ र",
      "रह ेंगे",
      "पर्या वरण",
      "मजबू त",
      "य म",
      "े न्द्र",
      "नि श",
      "च्च ी",
      "दिव सीय",
      "दी प",
      "घा ट",
      "त् सव",
      "घोष ित",
      "सुझा व",
      "व ज",
      "वा हन",
      "कार ्",
      "शि विर",
      "जन ों",
      "स्टे शन",
      "ल् प",
      "बधा ई",
      "या त",
      "ता ल",
      "सके ंगे",
      "ऑन लाइन",
      "नी तीश",
      "ून ्य",
      "ड ो",
      "बि क",
      "चौ धरी",
      "घं टे",
      "ं ती",
      "क हीं",
      "आप दा",
      "जागरू क",
      "भूमि का",
      "राजी व",
      "श ून्य",
      "वि कस",
      "विष य",
      "आ दि",
      "अर् पित",
      "न्यू नतम",
      "फस ल",
      "विकस ित",
      "ब ारी",
      "आवश्य कता",
      "कां श",
      "कं प",
      "अ ट्",
      "ए क्स",
      "हा ई",
      "बर त",
      "एन डी",
      "जागर ण",
      "सक्रि य",
      "चल ते",
      "हिस् सों",
      "निर्धार ित",
      "दूसर ी",
      "नियंत्र ण",
      "ग ह",
      "छात्र ों",
      "स ित",
      "पूर् वी",
      "मंत्रि मंडल",
      "हा सिल",
      "फै स",
      "प टेल",
      "प्र कार",
      "अ शोक",
      "ब ल्",
      "नि धन",
      "शि क्षकों",
      "स्त ु",
      "कार्यक्रम ों",
      "सू ची",
      "तक नी",
      "मान व",
      "उप चार",
      "घर ों",
      "भ ्र",
      "र् श",
      "मुजफ्फर पुर",
      "अ ग्र",
      "प च्ची",
      "त्म क",
      "डि ग्री",
      "प्रै ल",
      "अ प्रैल",
      "पच्ची स",
      "जु ड़े",
      "विधे यक",
      "जय ंती",
      "मिले गा",
      "शही द",
      "ं तीस",
      "ए च",
      "च यन",
      "नि देशक",
      "पी ठ",
      "राम द",
      "मै दान",
      "मृ त्य",
      "न ल",
      "ब ड़े",
      "स्कू लों",
      "वितर ण",
      "ग ौ",
      "ब रामद",
      "ते रह",
      "शु ल्क",
      "सें टर",
      "नु कसान",
      "कोवि ंद",
      "क ही",
      "र ं",
      "र म",
      "शि का",
      "चु की",
      "लो त",
      "देश िक",
      "वर् त",
      "पू जा",
      "प्रा देशिक",
      "संशो धन",
      "च ले",
      "ध ु",
      "मि ला",
      "ह तिया",
      "स त्ता",
      "मन ो",
      "ं प",
      "त ौर",
      "अधि कांश",
      "पार ्",
      "निरी क्षण",
      "न्याया धीश",
      "रो ह",
      "ं ट",
      "जि म्",
      "प्रमुख ता",
      "सम्मान ित",
      "अंतर ्राष्ट्रीय",
      "विद्या लयों",
      "ड र",
      "सं स्कृति",
      "जि सके",
      "कार्य ों",
      "ढ़ ी",
      "उद् घाटन",
      "पत्रकार ों",
      "ल गे",
      "प्र योग",
      "ि की",
      "ुर ु",
      "जरि ए",
      "टा इ",
      "आ ग",
      "ल ड़",
      "प्र खंड",
      "मे र",
      "आ युक्त",
      "श हरी",
      "ठ ंड",
      "स्था पना",
      "प्राथमि कता",
      "अ च्छ",
      "पु रा",
      "सो शल",
      "आस ान",
      "महानि देशक",
      "ख ण्ड",
      "ल ने",
      "व क्ता",
      "दे वी",
      "सा य",
      "सोल ह",
      "गह लोत",
      "प न्द्र",
      "श राब",
      "ह त्या",
      "नि वेश",
      "योग दान",
      "जु ड़ी",
      "उत्पा दन",
      "म ण",
      "व हां",
      "पन्द्र ह",
      "न ै",
      "ल ान",
      "ह वा",
      "खा द्य",
      "व्या पक",
      "आ वेदन",
      "हल् की",
      "त य",
      "न ारा",
      "सम झ",
      "ब द्ध",
      "व ाना",
      "्या स",
      "प्रा वधान",
      "स्व तंत्र",
      "इ स्ते",
      "जन वरी",
      "की स",
      "पदा धिकारी",
      "अ र्थ",
      "ज वानों",
      "ले ख",
      "इस्ते माल",
      "न ान",
      "शा ंति",
      "त त्",
      "परि सर",
      "धिकार ियों",
      "ू ट",
      "र् जी",
      "ह ई",
      "ू ं",
      "मु क्त",
      "जन सभा",
      "शिका यत",
      "सी बी",
      "दो लन",
      "मृत्य ु",
      "ंग ी",
      "ई ट",
      "निर् भर",
      "सार ्वज",
      "बढ़ कर",
      "सुर ेश",
      "हाला ंकि",
      "सार्वज निक",
      "य ं",
      "इक् कीस",
      "मत दाताओं",
      "गठ बंधन",
      "अ ड़",
      "हा द",
      "न् व",
      "भे ज",
      "मज दूर",
      "ब ड़ा",
      "च ारी",
      "व नी",
      "ढ़ े",
      "गतिवि धियों",
      "आ न",
      "ड ू",
      "बढ़ ो",
      "वै ज्ञान",
      "प्रभा वी",
      "े य",
      "कार ा",
      "तै ना",
      "जिम् मे",
      "ए हतिया",
      "ऑ क्सी",
      "हिस् सा",
      "ब यान",
      "स्थ ल",
      "नागरि कों",
      "ल ौ",
      "मुख ्यालय",
      "जरि ये",
      "रा ग",
      "मु ं",
      "प् ला",
      "राव त",
      "ब घे",
      "त्र ियों",
      "णा म",
      "गत ान",
      "पह ला",
      "सर् वे",
      "रह ें",
      "हो ना",
      "पो षण",
      "पं जा",
      "बद लाव",
      "वर्त मान",
      "का त",
      "चुना वी",
      "च ू",
      "्य ों",
      "सं सा",
      "श्रद् वा",
      "पश्चि म",
      "स राय",
      "ऊ र्जा",
      "निर्देश ों",
      "ग ल",
      "भा षा",
      "मु ला",
      "समा धान",
      "फैस ले",
      "बघे ल",
      "स् टर",
      "कार्य शाला",
      "परि णाम",
      "प्र भारी",
      "क्ष मता",
      "व्या पार",
      "विस्त ार",
      "बल् कि",
      "प्र णा",
      "राज स्थान",
      "क श्",
      "कार्य वाही",
      "ंड ी",
      "जल स्तर",
      "अ पर",
      "ट ै",
      "सं गठ",
      "पु ष्टि",
      "देश भर",
      "एनडी ए",
      "प्रति बंध",
      "अं क",
      "वाह नों",
      "ध ो",
      "का ब",
      "दे नजर",
      "सा झा",
      "पह ल",
      "बा व",
      "लिख ता",
      "ब र्फ",
      "जा म",
      "सा ढ़े",
      "माम ला",
      "प्र बंध",
      "मि कों",
      "ऑक्सी जन",
      "अ मर",
      "नागरि क",
      "फा ई",
      "उ म",
      "पंजा ब",
      "य ें",
      "दु निया",
      "समस्या ओं",
      "चल ने",
      "वृ द्धि",
      "प्र ी",
      "शास ित",
      "ढ़ ा",
      "रहे गी",
      "गांव ों",
      "वाप स",
      "प्रणा ली",
      "ख ोल",
      "मं डी",
      "उप स्थित",
      "अपरा धियों",
      "मुला कात",
      "ज म्",
      "दा खिल",
      "विभाग ों",
      "ज्ञ ा",
      "भ ंगा",
      "ती सर",
      "जन पद",
      "यु व",
      "चला या",
      "म द्",
      "दुर् घटना",
      "अ टल",
      "व ारी",
      "मो बाइ",
      "वा ड़ा",
      "द् वार",
      "आं दोलन",
      "कश् मीर",
      "मोबाइ ल",
      "स श",
      "र् ति",
      "वि रोध",
      "या त्रियों",
      "प्र दर्श",
      "श्र म",
      "कर्म चारी",
      "सत्र ह",
      "वे द",
      "अ ख",
      "मु काब",
      "रो ड",
      "शि क्षक",
      "पु न",
      "विशेष ज्ञ",
      "दर भंगा",
      "ं बर",
      "नी य",
      "ू बर",
      "प्र भाव",
      "मह ारा",
      "सं सद",
      "मि श्र",
      "भार ्",
      "सू न",
      "एक्स प्रेस",
      "ऐ प",
      "ट क",
      "वार ्य",
      "ल् ड",
      "स्प ष्ट",
      "शुभार ंभ",
      "अ गर",
      "अनि वार्य",
      "ख र",
      "सं भव",
      "इस लिए",
      "श पथ",
      "ॉ ल",
      "कर ता",
      "ड़ ियों",
      "कौ शल",
      "हो ता",
      "अं त",
      "उत् तरा",
      "वज ह",
      "ह में",
      "परि योजनाओं",
      "सम् बोधित",
      "भ कामना",
      "न् द",
      "जता ई",
      "कि लो",
      "लाई न",
      "ऋ ण",
      "य ण",
      "प्र वासी",
      "ति र",
      "एस टी",
      "अख बार",
      "लि क",
      "बि लास",
      "भाग ों",
      "था म",
      "र वाना",
      "वर् तन",
      "प्रतिनि धि",
      "प ें",
      "वि श्वास",
      "भा स्कर",
      "क्षेत्र ीय",
      "संचा लित",
      "ल ेंगे",
      "ह र्ष",
      "ना य",
      "ला या",
      "आत ंक",
      "गण ना",
      "ब च",
      "ल क",
      "कार्य ो",
      "नियम ों",
      "र ल",
      "भा ई",
      "पी ड़",
      "रोक थाम",
      "ि ज",
      "घ न",
      "म ई",
      "म हो",
      "स् मार",
      "पर े",
      "सं कट",
      "स्वा गत",
      "ठा क्र",
      "श ै",
      "ह टा",
      "से ल्",
      "कर के",
      "तरी के",
      "मध्य प्रदेश",
      "प ंच",
      "म क",
      "कि ल",
      "क् वार",
      "हि ं",
      "सं स्थानों",
      "उपा य",
      "फा य",
      "उ से",
      "म ती",
      "इं टर",
      "नि ष्",
      "श्र मिकों",
      "छा त्रा",
      "ज वान",
      "य स",
      "चु का",
      "निय मित",
      "परिवार ों",
      "चा ई",
      "उम्मीदवार ों",
      "प्र स्तु",
      "सै नि",
      "बन ने",
      "ज मी",
      "टी के",
      "राम नाथ",
      "खे ती",
      "ंता लीस",
      "ग ज",
      "ब लों",
      "रा ठ",
      "हो ते",
      "धि क",
      "धार ्",
      "जै न",
      "ंगा बाद",
      "ठी क",
      "स ख्",
      "ण व",
      "ह वाई",
      "पार ण",
      "मंत्र ियों",
      "हो म",
      "द् द",
      "चु नौ",
      "ऊ पर",
      "म् ख्य",
      "पह र",
      "आत्म निर्भर",
      "वर् धन",
      "जम् मू",
      "आह वान",
      "मद् देनजर",
      "ज न्",
      "स वाल",
      "स् ती",
      "दो पहर",
      "फि ल्",
      "महो त्सव",
      "जि टिव",
      "दिव ्या",
      "उल् लेख",
      "म शी",
      "ें ट",
      "वा दियों",
      "स्व यं",
      "प ता",
      "सेवा ओं",
      "अ सर",
      "ने शन",
      "प्र माण",
      "प्र गति",
      "वो ट",
      "स जा",
      "का ली",
      "स् त्र",
      "चा लीस",
      "सफल ता",
      "ान वे",
      "वे ब",
      "अव ै",
      "स्थ ग",
      "जो ड़",
      "कम ल",
      "उच्च तम",
      "गै र",
      "एहतिया ती",
      "आ वा",
      "य कों",
      "अव धि",
      "जु लाई",
      "प्रतिनि धियों",
      "वा यु",
      "त् सा",
      "पहुंच े",
      "बिलास पुर",
      "आ या",
      "ज ित",
      "जा कर",
      "भग वान",
      "विष ्य",
      "फस लों",
      "बर्फ बारी",
      "आधार ित",
      "नागरि कता",
      "दिव्या ंग",
      "म ध्यम",
      "सि यस",
      "उत्पा द",
      "प्रो त्सा",
      "सुर् ख",
      "न ार",
      "ह ये",
      "कि ंग",
      "प्र वक्ता",
      "नारा यण",
      "संगठ नों",
      "अवै ध",
      "म् भ",
      "प ंद्र",
      "पा ठ",
      "मान ा",
      "ग्रह ण",
      "कान ू",
      "सरा हना",
      "ला भार्",
      "संचा लन",
      "बढ़ो तरी",
      "पंद्र ह",
      "न ्य",
      "भ विष्य",
      "प्र ि",
      "जा ती",
      "ति थि",
      "भाग लपुर",
      "टे स्ट",
      "ड़े कर",
      "सां स्कृति",
      "स् तक",
      "क् शन",
      "त् मा",
      "ए जें",
      "फ्रें सिंग",
      "जाव ड़ेकर",
      "सांस्कृति क",
      "त ला",
      "दे ना",
      "क ्यों",
      "ख ार",
      "च ंद्र",
      "द क्षि",
      "प च",
      "रि ंग",
      "अ क्ट",
      "ऐ सी",
      "ग ड़",
      "भी ड़",
      "क क्षा",
      "वि त्",
      "ला ह",
      "मा ता",
      "मं ड",
      "जु र्",
      "कॉ न्",
      "दे हरा",
      "प्रदेश ों",
      "सेल् सियस",
      "ले टि",
      "च् छा",
      "इला के",
      "प्रयास ों",
      "जनजा तीय",
      "अक्ट ूबर",
      "उ चित",
      "ऐ सा",
      "पा कि",
      "बा ईस",
      "मे ला",
      "तारी ख",
      "क त",
      "ण सी",
      "ता लीस",
      "सर् व",
      "तैयार ियां",
      "सड़ कों",
      "वित् तीय",
      "ष् ण",
      "तैयार ियों",
      "छ ि",
      "न या",
      "प्र ौ",
      "परि वर्तन",
      "स फाई",
      "सं धान",
      "ग ुरू",
      "प न्",
      "अधि नियम",
      "वारा णसी",
      "रख ी",
      "श्रद् वाल",
      "शि यों",
      "गो रख",
      "अ फ",
      "स् पे",
      "मू र्ति",
      "पॉ जिटिव",
      "उ ज्",
      "प ड़े",
      "प्र ताप",
      "हो ती",
      "हि म",
      "गठ ित",
      "सम ान",
      "श्री मती",
      "धि करण",
      "राज्य सभा",
      "आरो पी",
      "घ ु",
      "प शु",
      "ता बिक",
      "मा ने",
      "शो र",
      "अग स्त",
      "ह मारी",
      "ि ंग",
      "रि क",
      "भू पेश",
      "इ का",
      "ट िक",
      "ब दल",
      "दे र",
      "सं विधान",
      "अच्छ ी",
      "संसा धन",
      "त ू",
      "परी क्षण",
      "स ही",
      "सु ना",
      "बार ा",
      "जै सी",
      "द्योग िकी",
      "दृ ष्टि",
      "वि मान",
      "मु ताबिक",
      "सी ल",
      "बाद ल",
      "स्व रूप",
      "भु गतान",
      "अर्थ व्यवस्था",
      "रख े",
      "आस पास",
      "फिल् म",
      "च ंद",
      "ट ने",
      "सम र्",
      "चा ह",
      "गि राव",
      "गिराव ट",
      "त रे",
      "य ारी",
      "प्रा धिकरण",
      "गो वि",
      "सुविधा ओं",
      "लि ंग",
      "रे न",
      "मो ह",
      "कु ल्",
      "णव त्ता",
      "अ ध्या",
      "गर् मी",
      "हि क",
      "यु क्ति",
      "पे य",
      "फ ॉ",
      "व ानी",
      "बा लिका",
      "मै च",
      "व्यक्ति यों",
      "पंचायत ों",
      "अपरा ध",
      "र ज",
      "सम ी",
      "पहुंचा ने",
      "तैना त",
      "स्थग ित",
      "रा शन",
      "सं जय",
      "ह ल",
      "पर्या प्त",
      "समू ह",
      "तिहा सिक",
      "धार् मिक",
      "ध ्र",
      "कार ो",
      "रि कॉ",
      "छ ोड़",
      "ध ू",
      "सो लन",
      "खबर ों",
      "वार् ता",
      "ं दा",
      "आ चार",
      "दे ष",
      "बं दी",
      "तै यारी",
      "उ द्य",
      "ए यर",
      "पर ेश",
      "सेवा एं",
      "ज द",
      "जे ल",
      "प्रौ द्योगिकी",
      "अ हम",
      "प्र श्",
      "वै श्",
      "शु भकामना",
      "मजदूर ों",
      "पुर ी",
      "शहर ों",
      "ज ंग",
      "रि ज",
      "शं कर",
      "पाकि स्तान",
      "नि ंग",
      "सुविधा एं",
      "संवाद दाताओं",
      "ा चार",
      "र् च",
      "लि यों",
      "पु ल",
      "ड़ा ई",
      "इं दौर",
      "रिकॉ र्ड",
      "बि ंद",
      "दू न",
      "आई टी",
      "फो न",
      "थ म",
      "सू चित",
      "जू न",
      "ची न",
      "माओ वादी",
      "वैश् विक",
      "ब ढ",
      "भार ती",
      "अनु संधान",
      "ट ्टी",
      "अनु राग",
      "प्रे म",
      "दौ रा",
      "संस्था ओं",
      "ो ध",
      "क् ल",
      "त्र ों",
      "शा ली",
      "दो ष",
      "पश्चि मी",
      "खोल ने",
      "लाह ौल",
      "न दियों",
      "मा ं",
      "ऐ तिहासिक",
      "च न्द्र",
      "सके गा",
      "मंदिर ों",
      "पंजी करण",
      "पेय जल",
      "ब न्",
      "स ्र",
      "्या लयों",
      "बी मारी",
      "परि जनों",
      "छ ूट",
      "ह मीर",
      "ता यात",
      "नि यों",
      "नि कल",
      "मं च",
      "हिन् दु",
      "तत् काल",
      "स ब्",
      "ह ड़",
      "ह ूं",
      "या तायात",
      "सा ठ",
      "संक्रमित ों",
      "कुल् लू",
      "जा ति",
      "सी ता",
      "सिल सि",
      "म् बा",
      "सौ ं",
      "निया दी",
      "लं बित",
      "जमी न",
      "स् वर्",
      "नि युक्ति",
      "यो ध्या",
      "बरत ने",
      "सीबी आई",
      "का नों",
      "साम ग्री",
      "प्रत्या शियों",
      "श्रद्वा ंजलि",
      "तीसर े",
      "प्र शास",
      "ट्र ा",
      "ज़ि ले",
      "हमीर पुर",
      "अ रु",
      "बना ई",
      "पोर्ट ल",
      "रं जन",
      "ए म्स",
      "ान ्",
      "बु लेटि",
      "अ योध्या",
      "ह रि",
      "सि टी",
      "जो न",
      "गो पाल",
      "साइ ट",
      "पें शन",
      "सं त",
      "डि जि",
      "मै ं",
      "सि र्फ",
      "उप भो",
      "जु ट",
      "पीड़ ित",
      "ज ब्",
      "स न",
      "जि न्",
      "अधिक तम",
      "फर वरी",
      "रोह ता",
      "मुं ह",
      "ह मे",
      "दे कर",
      "देहरा दून",
      "ला इ",
      "अधि सूचना",
      "मो हन",
      "प्रेर ित",
      "अन ुर",
      "महा त्मा",
      "आर क्षण",
      "छ िया",
      "पे ट",
      "भे जा",
      "करवा ने",
      "क्यों कि",
      "स तर्",
      "सा मना",
      "स्वतंत्र ता",
      "छ ु",
      "ढ ंग",
      "य दि",
      "राज स्व",
      "ते ईस",
      "सहा यक",
      "रू क",
      "बं गा",
      "टि ंग",
      "जिम्मे दारी",
      "ं दी",
      "ख तरे",
      "ण ्",
      "जा ला",
      "ड़ ों",
      "लगा ए",
      "ट्र ो",
      "न्याय मूर्ति",
      "इक तीस",
      "सु शील",
      "करा ई",
      "ार् थ",
      "निश ान",
      "ड ्ड",
      "ति क",
      "मो टर",
      "ंड ार",
      "गु णवत्ता",
      "ह ारी",
      "हु ल",
      "परि चा",
      "श्र ो",
      "द्योग िक",
      "शिव राज",
      "ड् डा",
      "म्ख्य मंत्री",
      "गोरख पुर",
      "पा त्र",
      "स्थ लों",
      "जी एसटी",
      "रख ते",
      "तो मर",
      "माओ वादियों",
      "श ुरु",
      "वा लि",
      "जि स्ट",
      "सर ी",
      "चि न्",
      "धा म",
      "सिं चाई",
      "अर् चना",
      "काली न",
      "उ जाला",
      "द् वाज",
      "कांग ड़ा",
      "बच्च े",
      "चे ता",
      "जन् म",
      "र् व",
      "मि न",
      "सि द्ध",
      "बी मा",
      "ट्र ोल",
      "मुद् दों",
      "जद यू",
      "अनुर ोध",
      "छ ब्",
      "व त",
      "ले ट",
      "बो ल",
      "पदा धिकारियों",
      "अ ठारह",
      "औ द्योगिक",
      "बै ं",
      "तकनी की",
      "छब् बीस",
      "रे डियो",
      "भार द्वाज",
      "मिल कर",
      "प राम",
      "टे ड",
      "चेता वनी",
      "म ण्ड",
      "रे लगा",
      "लो कार्",
      "मृ त",
      "श ब्",
      "पार ित",
      "गृह मंत्री",
      "र ्य",
      "ना इन्",
      "पा ए",
      "डॉ ट",
      "जब् त",
      "हमे शा",
      "स त्तर",
      "की मत",
      "का ने",
      "राज कीय",
      "इं त",
      "ौ न",
      "प्र ार",
      "क्र ा",
      "सम् पर्क",
      "हम ले",
      "उठा ए",
      "मौजू दा",
      "रोग ियों",
      "दक्षि ण",
      "ख र्च",
      "र द्द",
      "राज द",
      "बढ़ ने",
      "छो टे",
      "ड ्र",
      "भी तर",
      "दि व्य",
      "आप का",
      "प्रभा त",
      "घ ्र",
      "च ो",
      "र ंग",
      "ान गर",
      "लोकार् पण",
      "ग ढ",
      "ल गी",
      "वि वाद",
      "ला गत",
      "नि युक्त",
      "बढ़ ते",
      "उपा ध्यक्ष",
      "गरीब ों",
      "गै स",
      "पराम र्श",
      "आ जा",
      "ठ े",
      "ब र्",
      "सा गर",
      "बि नेट",
      "मत गणना",
      "गो यल",
      "ट ू",
      "प रा",
      "ान ु",
      "रा हुल",
      "भागी दारी",
      "अग्र वाल",
      "प्रदर्श नी",
      "वि वे",
      "घा टी",
      "डिजि टल",
      "प्र थम",
      "न् हा",
      "राज नाथ",
      "ु क",
      "राज मार्ग",
      "कर् मी",
      "पै दा",
      "सर् वो",
      "श्रद्धा ंजलि",
      "वेब साइट",
      "नाइन् टीन",
      "ब ्यू",
      "एस पी",
      "चला ने",
      "अट् ठारह",
      "कारा त्मक",
      "बंगा ल",
      "क मे",
      "वे ज",
      "कि शन",
      "दि ग्",
      "बे गू",
      "राठ ौर",
      "आ दर्श",
      "क टि",
      "स ल",
      "नि धि",
      "उत् सव",
      "जाय जा",
      "कं वर",
      "अखबार ों",
      "ं सी",
      "उ ड़",
      "क मा",
      "क श्य",
      "वि ल",
      "निका ली",
      "बेगू सराय",
      "क हना",
      "ब या",
      "ौ रा",
      "ौर ्य",
      "पी एम",
      "शं का",
      "कश्य प",
      "न म्बर",
      "प ल",
      "नि रा",
      "एक ता",
      "सो म",
      "पा ंड",
      "कमल नाथ",
      "हिन्दु स्तान",
      "ज ला",
      "ब ई",
      "सरकार ों",
      "हि ता",
      "दू सरा",
      "जब लपुर",
      "छा पे",
      "न क्स",
      "लगा ई",
      "विधा यकों",
      "समझ ौ",
      "लाभार् थियों",
      "वालि यर",
      "य ती",
      "डि यम",
      "मृ तक",
      "ग् वालियर",
      "न्यू ज",
      "चं पारण",
      "प्रश् न",
      "परिचा लन",
      "फ ार्",
      "र ानी",
      "क्ष र",
      "वे तन",
      "अन् तर्गत",
      "महारा ष्ट",
      "सि न्हा",
      "णा चल",
      "मुद् दे",
      "आ शा",
      "कार्य काल",
      "बी मार",
      "ष्ट ाचार",
      "गोवि ंद",
      "महाराष्ट ्र",
      "से न",
      "सो रेन",
      "उस की",
      "ग्रामीण ों",
      "समस् ती",
      "उत्पा दों",
      "आ भार",
      "फ ं",
      "पा ये",
      "प्रति बद्ध",
      "विद्य ु",
      "शब् द",
      "बु नियादी",
      "श्रे ष्ठ",
      "प्रशास निक",
      "मिन ट",
      "न मू",
      "य ंत्र",
      "स् पी",
      "सं स्",
      "सं भा",
      "क म्प",
      "शि लान",
      "वार ्ड",
      "मे श",
      "ठा ईस",
      "बो धन",
      "श्रे णी",
      "शुभकामना एं",
      "ऊ ना",
      "ह ॉ",
      "कि शोर",
      "दी न",
      "चि त्र",
      "टा ई",
      "दौ रे",
      "युव क",
      "किलो मीटर",
      "नाय डू",
      "बे ड",
      "शी घ्र",
      "कै बिनेट",
      "ट् स",
      "ज रात",
      "ने पाल",
      "वा ं",
      "जा ते",
      "ली य",
      "दा स",
      "फ्रें स",
      "अ ंग",
      "आ ंग",
      "प ड़ा",
      "र ें",
      "व स्त",
      "रा त्रि",
      "क्ष ति",
      "भो जन",
      "विपक्ष ी",
      "लै ंड",
      "बुलेटि न",
      "शिलान ्यास",
      "स कारात्मक",
      "राज ना",
      "्ट र",
      "ट्रे नों",
      "दाय िक",
      "ए प",
      "नि भा",
      "तर फ",
      "वर् क",
      "जान ी",
      "वर्ष ो",
      "ट्र क",
      "सर्वे क्षण",
      "व ्र",
      "सं हिता",
      "वर् मा",
      "कृ ष्ण",
      "लं घन",
      "व ्",
      "सम ृ",
      "चि ंता",
      "पूर्व क",
      "कार्यकर् ता",
      "उद घाटन",
      "हो ली",
      "हों गी",
      "प्रया ग",
      "जिन में",
      "क्रि केट",
      "जता या",
      "ज़ि ला",
      "फ ान",
      "सा बित",
      "प्रदेश वासियों",
      "रवि वार",
      "बां ध",
      "समु दाय",
      "अ स्",
      "द या",
      "धि यां",
      "टि स",
      "घटना ओं",
      "उल् लंघन",
      "आतंक वाद",
      "ह थि",
      "वि म",
      "प्रदेश भर",
      "प् ति",
      "वैज्ञान िक",
      "प्रस्तु त",
      "ब ढा",
      "ल ना",
      "्य ो",
      "मा ध्य",
      "सम न्व",
      "दूर दर्शन",
      "रिज र्व",
      "हड़ ताल",
      "कटि हार",
      "इ ले",
      "व ली",
      "पर मार",
      "स्ट ार",
      "पि ता",
      "आयु र्",
      "वा स्त",
      "सी आर",
      "उप राष्ट्रपति",
      "बे टी",
      "उत् साह",
      "शास कीय",
      "स्टे डियम",
      "उत्तरा खंड",
      "हिं सा",
      "आ ंक",
      "ठ ि",
      "प ढ़ा",
      "म ढ़ी",
      "अल र्ट",
      "कमे टी",
      "हथि यार",
      "अ ना",
      "ें गी",
      "पो स्ट",
      "आ शंका",
      "कर ो",
      "सं कम",
      "दुर् ग",
      "सित म्बर",
      "विम र्श",
      "फ ू",
      "का उ",
      "एक जुट",
      "पार ्ट",
      "सम् पन्न",
      "डॉक्टर ों",
      "वितर ित",
      "पत् ति",
      "जोड़ ने",
      "ए ड",
      "सा ई",
      "रूप ए",
      "तार ा",
      "गु प्ता",
      "पद ों",
      "डे ढ़",
      "भागी य",
      "ज्ञा पन",
      "छापे मारी",
      "नि यर",
      "अग ्",
      "श्वास न",
      "सैनि कों",
      "इका ई",
      "टिक ट",
      "कार ों",
      "पा या",
      "राज भवन",
      "चिकित् स",
      "विदेश ी",
      "पन् ने",
      "ह रे",
      "सा मु",
      "बि ल",
      "खा ते",
      "ष् मान",
      "माध्य मिक",
      "आ श्वासन",
      "च पेट",
      "र् न",
      "रा केश",
      "सं चार",
      "अनु सूचित",
      "ंद गांव",
      "ट्र ै",
      "पंचा यती",
      "छ े",
      "मु ंगे",
      "उप करण",
      "इन के",
      "डि स्ट",
      "डा क",
      "प्राथ मिक",
      "भ्र ष्टाचार",
      "राजना ंदगांव",
      "ख त्म",
      "ट ्यू",
      "त ुर",
      "ित ्व",
      "जू द",
      "ट्र िक",
      "आ कर्",
      "ृ त",
      "दे खा",
      "ले शन",
      "जि से",
      "रे ट",
      "रे गा",
      "वी रेन्द्र",
      "समा पन",
      "लग वा",
      "ट ली",
      "फ ्ट",
      "ार े",
      "सु नी",
      "कृति क",
      "उठा या",
      "फं से",
      "ष ित",
      "बा जी",
      "टे न",
      "स्ट िक",
      "कॉलेज ों",
      "अरु णाचल",
      "वस्त ुओं",
      "द वारा",
      "ि कों",
      "नि ः",
      "नि वार",
      "प् लिस",
      "फि ल",
      "आन ंद",
      "द स्तक",
      "ौ ली",
      "्या ज",
      "रण नीति",
      "केंद्र ों",
      "कंप नी",
      "छात्रा ओं",
      "उ ंड",
      "ख ान",
      "त ब",
      "प ंड",
      "ब स्तर",
      "कर ती",
      "पह नें",
      "लोक तंत्र",
      "सत्ता ईस",
      "झ ु",
      "फ र्जी",
      "बा ई",
      "बता ते",
      "प्रा कृतिक",
      "लग ने",
      "त्य ो",
      "वाज पे",
      "च क्र",
      "सी एम",
      "न्व यन",
      "बाव जूद",
      "बिंद ल",
      "अ जय",
      "अ खिल",
      "द मी",
      "स् नान",
      "दा बाद",
      "श्र ू",
      "अभ ्य",
      "गिर ने",
      "ख ला",
      "ल क्षण",
      "वि धि",
      "ति वारी",
      "सि विल",
      "उप चुनाव",
      "पद क",
      "ले ते",
      "यू नि",
      "को ष",
      "आरोप ियों",
      "श्रद्धा ल",
      "वैज्ञान िकों",
      "बैं कों",
      "समस्ती पुर",
      "विद्यु त",
      "व ॉ",
      "प्र ती",
      "शि श",
      "भर ने",
      "विशेषज्ञ ों",
      "श्रद्वाल ुओं",
      "द स्ता",
      "को ट",
      "ना ई",
      "सी धे",
      "पह ंच",
      "तो ष",
      "बचा ने",
      "क ने",
      "द ेंगे",
      "न् ना",
      "श्र मिक",
      "स्वी कृति",
      "हिन् दी",
      "प्रेर णा",
      "त् ति",
      "सी सी",
      "राम पुर",
      "रख ना",
      "खे लों",
      "मॉ न",
      "नेशन ल",
      "औ ष",
      "च क",
      "मं द",
      "सू त्रों",
      "आयु ष्मान",
      "शही दों",
      "हाई कोर्ट",
      "र ों",
      "सं भाग",
      "त्य ौ",
      "नव म्बर",
      "अस् सी",
      "ग ंग",
      "ध ्",
      "न गरी",
      "को शिश",
      "रा सत",
      "ंग ्",
      "प्रति मा",
      "लगा ये",
      "अनि ल",
      "ब्यू रो",
      "मा त्रा",
      "देश वासियों",
      "बा ड़ी",
      "पार दर्",
      "सह मति",
      "पि न",
      "खरी दी",
      "सीता मढ़ी",
      "प्र को",
      "दि सम्",
      "बना कर",
      "आई आर",
      "कॉ ल",
      "गु जरात",
      "भो ज",
      "लू ट",
      "उठा ने",
      "सर्वो च्च",
      "दिसम् बर",
      "न ही",
      "सि या",
      "प्रति दिन",
      "ग लत",
      "प हा",
      "भ रो",
      "सार ण",
      "काम गार",
      "दु ष्",
      "सोम वार",
      "संकम ण",
      "अ ज",
      "न क",
      "चौ क",
      "अं दर",
      "स्ट ा",
      "सै निक",
      "धर्म शाला",
      "प्ला स्टिक",
      "चिकित्स कों",
      "त्यौ हार",
      "ख ू",
      "ग मन",
      "द य",
      "न ंद",
      "पा ई",
      "सके ं",
      "डे कर",
      "फिल हाल",
      "ट कों",
      "द ं",
      "र मेश",
      "सु ख",
      "मो र्चा",
      "च् नाव",
      "अधिक तर",
      "मॉन सून",
      "ं की",
      "म ुर",
      "स् मृ",
      "मं गल",
      "मु केश",
      "मे ल",
      "पह न",
      "पी एफ",
      "रुप ए",
      "विद्यार् थी",
      "मुकाब ले",
      "ब सों",
      "स वार",
      "ू प",
      "कि ट",
      "वि ध",
      "गी त",
      "गी र",
      "उत् कृ",
      "मुकाब ला",
      "मण्ड ल",
      "त ह",
      "न म",
      "म रा",
      "के सरी",
      "या त्री",
      "है या",
      "ला म",
      "गो ली",
      "सित ंबर",
      "हर्ष वर्धन",
      "इंत जाम",
      "सामु दायिक",
      "द् वि",
      "सि स्ट",
      "स्मार ्ट",
      "ष िक",
      "को र",
      "भा षण",
      "बा धित",
      "अनु दान",
      "ुरू प",
      "विश्व विद्यालयों",
      "कान पुर",
      "हरा या",
      "सुर्ख ियां",
      "मुंगे र",
      "द ें",
      "न ती",
      "मा ई",
      "पास वान",
      "स्कू ली",
      "स्टे ट",
      "समन्व य",
      "अ ड्ड",
      "आ वं",
      "म धु",
      "ें स",
      "कार ्यालयों",
      "पू जन",
      "वी एम",
      "बे च",
      "नो डल",
      "उद य",
      "हाद से",
      "स्मृ ति",
      "अ च्छा",
      "उ ट",
      "ण ्य",
      "भ रा",
      "क् ताओं",
      "सा मू",
      "बढ़ े",
      "मिश्र ा",
      "एजें सी",
      "ं व",
      "इ यों",
      "भ ेंट",
      "श ह",
      "उपलब्ध ता",
      "चुनौ ती",
      "प्रोत्सा हित",
      "उज् जैन",
      "ं खला",
      "वि भागीय",
      "ला पर",
      "भा ल",
      "ल् स",
      "देख ने",
      "वार् षिक",
      "वाजपे यी",
      "न वी",
      "बा दी",
      "धार ा",
      "खु ले",
      "नेट वर्क",
      "चं बा",
      "स्पे शल",
      "ि का",
      "नि काल",
      "बी ते",
      "जाव डेकर",
      "फाय दा",
      "इले क्",
      "अ थ",
      "ई वीएम",
      "ठ ो",
      "ड ु",
      "और ंगाबाद",
      "ले न",
      "हो श",
      "जन रल",
      "दा वा",
      "जी व",
      "मान सून",
      "ग्र स्त",
      "गर ज",
      "आई जी",
      "वै शाली",
      "जग हों",
      "उत्कृ ष्ट",
      "आ पात",
      "च र",
      "य ्",
      "को टा",
      "ती नों",
      "ंस ठ",
      "तकनी क",
      "सश क्त",
      "सख् ती",
      "श्रो ताओं",
      "लापर वाही",
      "ं तर",
      "अ ध्य",
      "इ ड",
      "ग हरा",
      "क् सर",
      "बी काने",
      "गी य",
      "करा ये",
      "ज़ र",
      "कंप नियों",
      "आजा दी",
      "बीकाने र",
      "् वान",
      "दे गी",
      "पा ली",
      "मह ेन्द्र",
      "पै ंतीस",
      "नो टिस",
      "पांड ेय",
      "अ ल्प",
      "सा मान",
      "हि ब",
      "वे न्द्र",
      "प्रति पक्ष",
      "भू त",
      "पार् क",
      "सामू हिक",
      "आ उट",
      "ट ियों",
      "स त्य",
      "सू र्य",
      "मन रेगा",
      "वृ ष्टि",
      "हिम पात",
      "सा व",
      "दा यर",
      "ंच ल",
      "जाए ंगी",
      "सब का",
      "भे ड़",
      "पंड ित",
      "च ंडी",
      "ज ों",
      "श री",
      "सं वेदन",
      "निः शुल्क",
      "फ ु",
      "म ौर्य",
      "सं स्कार",
      "सं क्षि",
      "सं बोधन",
      "कल न",
      "पर्य टकों",
      "अभि भाव",
      "सख् त",
      "पच हत्तर",
      "दया ल",
      "तुर ंत",
      "ड ब्",
      "ष क",
      "प्र करण",
      "नि लंबित",
      "सं ख्य",
      "निर् मित",
      "ग्र े",
      "स्था यी",
      "महा सचिव",
      "आप सी",
      "कै या",
      "रोग ी",
      "कानू नों",
      "च म्",
      "च लाई",
      "सा हिब",
      "क्र े",
      "कार्य कम",
      "उस का",
      "ऑन लाईन",
      "आह ्वान",
      "तिहा स",
      "मनो हर",
      "मशी न",
      "आ इस",
      "इ तिहास",
      "ग ंड",
      "ह स्ता",
      "कर ार",
      "कार्य कारी",
      "संक्षि प्त",
      "ज गत",
      "सि द्",
      "शि क",
      "गु ना",
      "हे ल्प",
      "चै न",
      "अर रिया",
      "अंत रि",
      "होश ंगाबाद",
      "क क्ष",
      "ब ॉ",
      "वि ज",
      "वा ण",
      "ंड र",
      "था ने",
      "धन राशि",
      "घो टा",
      "आय कर",
      "बिक ्री",
      "सश स्त्र",
      "आ मंत्र",
      "श ौ",
      "सं दिग्",
      "मु ठ",
      "उन से",
      "खा स",
      "चौ रा",
      "सो न",
      "एस डी",
      "उठा ये",
      "इक् या",
      "खार िज",
      "क ह",
      "न ंबर",
      "ब रा",
      "ब हत",
      "श ान",
      "पै ंतालीस",
      "संवेदन शील",
      "त ट",
      "प्र सिद्ध",
      "प्रति ष्ठ",
      "अव काश",
      "जो ध",
      "एम एस",
      "करें गी",
      "दार ों",
      "अति थि",
      "गतिवि धियां",
      "विस्त ृत",
      "चू नाव",
      "निष् पक्ष",
      "नमू नों",
      "दस्ता वेज",
      "गंड क",
      "अ सम",
      "वा लय",
      "नि वास",
      "क्ष म",
      "सु प्री",
      "रू म",
      "वें कैया",
      "बस पा",
      "नवा चार",
      "ईट ानगर",
      "संदिग् ध",
      "अ का",
      "ड ्यू",
      "व ती",
      "राज्य मंत्री",
      "म् मद",
      "पी एस",
      "लं दा",
      "करो ड",
      "कामगार ों",
      "स पा",
      "क् या",
      "क् मार",
      "ना लंदा",
      "राज ेश",
      "नी चे",
      "परीक्षा ओं",
      "गौर व",
      "वाप सी",
      "च ली",
      "म पुर",
      "वि पिन",
      "बा ईट",
      "उन में",
      "उन तीस",
      "यु द्ध",
      "विष यों",
      "कू ल",
      "उल्लेख नीय",
      "उपभो क्ता",
      "आइस ो",
      "आ र्",
      "प त",
      "र सा",
      "ल ंग",
      "ें सिंग",
      "सं तोष",
      "श् त",
      "वर् ती",
      "महा गठबंधन",
      "बन ाना",
      "इन् हें",
      "प्राथमि की",
      "नवा दा",
      "अड़ तालीस",
      "द बाव",
      "न् त",
      "रि कार्ड",
      "वे स्ट",
      "टे ली",
      "श्र ृ",
      "सके गी",
      "आर ोग",
      "हमार ा",
      "कल्याण कारी",
      "प्रयोग शाला",
      "आवा जा",
      "जिस्ट ्रे",
      "ख राब",
      "व सू",
      "वि जे",
      "बा ला",
      "अव गत",
      "सम् बन्",
      "सचि वालय",
      "खिला ड़ियों",
      "कानू नी",
      "आंग न",
      "भरो सा",
      "तह सील",
      "सिस्ट म",
      "आरोग ्य",
      "आवाजा ही",
      "त स्कर",
      "न ज़र",
      "य लों",
      "बढ़ ती",
      "घा यलों",
      "कां त",
      "साइ किल",
      "भेज ने",
      "क्वार ं",
      "ब ्रे",
      "ब द्व",
      "को ल",
      "को सी",
      "रि ट",
      "धी न",
      "करा ए",
      "महा विद्यालय",
      "पड़ ने",
      "ग ों",
      "छ ः",
      "ड ोल",
      "का शी",
      "ला ब",
      "बढ़ा कर",
      "वित्त मंत्री",
      "हवा ओं",
      "बच ने",
      "मोह म्मद",
      "ण् डा",
      "ड ्रा",
      "न वं",
      "गि रि",
      "समर् पित",
      "चंडी गढ़",
      "नवं बर",
      "जा पुर",
      "सम ित",
      "रो धी",
      "शि प",
      "लगा कर",
      "सह ारा",
      "बे न",
      "उद्योग ों",
      "शुभार म्भ",
      "त्यो हार",
      "क् कर",
      "राज ेन्द्र",
      "सम क्ष",
      "सद र",
      "फ् त",
      "यू ष",
      "उम ्र",
      "आवा गमन",
      "कॉन् फ्रेंसिंग",
      "इ त",
      "प ान",
      "प ला",
      "प ्टर",
      "कि न्न",
      "हा ली",
      "मं त",
      "पा यल",
      "मु हैया",
      "ब् बे",
      "सह कारी",
      "खो ले",
      "दिखा ई",
      "चिन् हित",
      "उड़ ान",
      "र थ",
      "के ं",
      "शि या",
      "निर् मला",
      "योग ्य",
      "जो शी",
      "शक्ति करण",
      "ड् डी",
      "गोपाल गंज",
      "क्रा ंति",
      "सुप्री म",
      "क भी",
      "ड ें",
      "कि त",
      "का ंड",
      "स् ना",
      "पर म्प",
      "दो बारा",
      "वर् चु",
      "उप मुख्यमंत्री",
      "सै न्य",
      "देख भाल",
      "नियंत्र ित",
      "पौ ध",
      "आमंत्र ित",
      "जोध पुर",
      "न र्",
      "ब लि",
      "सं पन्न",
      "सर दार",
      "बि हारी",
      "स्वा मी",
      "जु ड़",
      "निर्वा चित",
      "गिरफ् तारी",
      "माह ौल",
      "जनजा ति",
      "प्रोत्सा हन",
      "ओ ला",
      "ज म",
      "थ ो",
      "द ोग",
      "स शक्तिकरण",
      "पा द",
      "मु क्ति",
      "अन ुरूप",
      "जे टली",
      "सो च",
      "ट्र ॉ",
      "सतर् कता",
      "अध्य यन",
      "मुठ भेड़",
      "परम्प रा",
      "आ यी",
      "ट ्ट",
      "ठ ान",
      "ध नों",
      "प टा",
      "श व",
      "कर नी",
      "न् स",
      "सी धा",
      "सु चार",
      "मार क",
      "कम जोर",
      "उस से",
      "भे जे",
      "आदि वासी",
      "अग् नि",
      "अ ल्",
      "आ श्र",
      "ई द",
      "प्र दू",
      "पा लिका",
      "रू ण",
      "डि ंग",
      "हे मंत",
      "समाज वादी",
      "प्रार ंभ",
      "छ ठ",
      "त व्य",
      "ल ्यू",
      "के यर",
      "ले श",
      "टा इन",
      "चाहि ये",
      "खु द",
      "न्याय िक",
      "रवि शंकर",
      "सुर्ख ियों",
      "रोहता स",
      "किन्न ौर",
      "अ म",
      "उ र्",
      "र न",
      "ल र",
      "कर ाना",
      "क्ष ी",
      "शि ष्ट",
      "हि या",
      "पी यूष",
      "ंद र",
      "व्यव हार",
      "ध्या य",
      "पहुंच ने",
      "संघ र्ष",
      "हटा ने",
      "परेश ान",
      "अना ज",
      "त ोड़",
      "न ड्डा",
      "ल ड़ाई",
      "ह वाले",
      "नि र",
      "मु फ्त",
      "आज ी",
      "बी र",
      "परि क",
      "दु कानों",
      "अट् ठाईस",
      "पुन र्",
      "कारो बार",
      "संस् करण",
      "पायल ट",
      "क ड़ा",
      "ग ड",
      "सं वेद",
      "व्यव साय",
      "शो ध",
      "मै न",
      "कुल दीप",
      "समर् पण",
      "छोड़ कर",
      "परेश ानी",
      "ख गड़",
      "थ ित",
      "प ृ",
      "फ ्यू",
      "को ता",
      "स् टी",
      "नि वासी",
      "भी षण",
      "दी पा",
      "शि ला",
      "दा म",
      "सभा ओं",
      "दु कान",
      "खंड वा",
      "करवा या",
      "धु निक",
      "सौं पा",
      "खगड़ िया",
      "कोता ही",
      "घ ट",
      "ब रे",
      "म कान",
      "के रल",
      "वि विध",
      "ला देश",
      "क्ष ार्",
      "मा त्र",
      "वी ण",
      "उप ज",
      "भू षण",
      "फा इन",
      "खन न",
      "फो रम",
      "जुर् माना",
      "स्वर् गीय",
      "शुरु आत",
      "नगरी य",
      "ओ म",
      "च मक",
      "छ ता",
      "दी पक",
      "एक त्र",
      "उन को",
      "प् प",
      "लाख ों",
      "महा समु",
      "उपा ध्याय",
      "मना ली",
      "तिया ं",
      "स्मार क",
      "सिलसि ला",
      "साव धानी",
      "वर्चु अल",
      "ड ियों",
      "स् लग",
      "डी ह",
      "क्षण िक",
      "शिव पुरी",
      "दुर् गा",
      "उत्तरा खण्ड",
      "दं ते",
      "अल्प संख्य",
      "ट ॉ",
      "र क्त",
      "स त्या",
      "वा ओं",
      "पा ने",
      "जन क",
      "लो ड",
      "खा ली",
      "शे ख",
      "क्वार ें",
      "ओला वृष्टि",
      "अ त्य",
      "अ मृत",
      "ओ पन",
      "द ंड",
      "र ित",
      "योजना एं",
      "भर त",
      "नीति यों",
      "जनपद ों",
      "डिस्ट ेंसिंग",
      "अ मे",
      "् डी",
      "स् म",
      "वि दा",
      "हो नी",
      "लोग ो",
      "मुख्य मंत्रियों",
      "ंकि ंग",
      "अज मेर",
      "शह डोल",
      "क पूर",
      "न ब्बे",
      "प ौल",
      "ना टक",
      "नि चले",
      "टे क्",
      "कै ं",
      "देख ी",
      "ढा ई",
      "स्टेशन ों",
      "परे ड",
      "चैन लों",
      "अका दमी",
      "बलि दान",
      "स ौर",
      "ंच ित",
      "मिल ना",
      "वर्ष ों",
      "चुनाव ों",
      "अधिकार िता",
      "िति न",
      "स्वी कार",
      "साह ू",
      "अर ब",
      "बरत ें",
      "शांति पूर्ण",
      "िज ्य",
      "हरि द्वार",
      "प्रयाग राज",
      "संवेद ना",
      "ट ोल",
      "न शे",
      "ब ौ",
      "ब हाल",
      "भा ष",
      "चा लक",
      "पार ा",
      "अनु मान",
      "इंड ि",
      "बारह वीं",
      "परी क्षार्",
      "बाग वानी",
      "मण ्डी",
      "प्रबंध क",
      "छु ट्टी",
      "स्टार ्ट",
      "प्रती क",
      "प्रको प",
      "वाण िज्य",
      "आइसो लेशन",
      "श्रृ ंखला",
      "सुचार ू",
      "ज मु",
      "ज ्यो",
      "दि लाने",
      "सदस्य ता",
      "चला ए",
      "कुल पति",
      "नव रा",
      "प्रस्ता वित",
      "गर् व",
      "चयन ित",
      "सिलसि ले",
      "ओ पी",
      "क ड़ाई",
      "ब क्सर",
      "भ ंडार",
      "ल ाना",
      "वि ज्ञ",
      "वा हा",
      "ले ना",
      "रह ि",
      "जन जीवन",
      "भाग ्य",
      "उत् पन्न",
      "सर् जन",
      "इं जी",
      "उस में",
      "पंजी यन",
      "छता छ",
      "न ितिन",
      "ष ेक",
      "दि सं",
      "दि लाई",
      "सि म",
      "शा खा",
      "प्रो जे",
      "मेर ठ",
      "शै क्षणिक",
      "पाठ ्य",
      "श्रद्धाल ुओं",
      "ड्यू टी",
      "ऑ परे",
      "वि कल्प",
      "री वा",
      "सु पौल",
      "बी एस",
      "प् लेट",
      "छा ये",
      "नौ करी",
      "ब्र ि",
      "फार् म",
      "क ठि",
      "झ े",
      "न मा",
      "फ ्री",
      "ब त्तीस",
      "ह ंगा",
      "के ज",
      "देश ी",
      "गे श्वर",
      "पे ट्रोल",
      "तु लना",
      "चुनौ तियों",
      "स्पी ति",
      "वास्त व",
      "अड्ड े",
      "पाद कीय",
      "प्रदू षण",
      "दिसं बर",
      "आ धिकार",
      "ज ोग",
      "द म",
      "ू ष",
      "हु यी",
      "जन संपर्क",
      "शी तल",
      "गो ष्ठ",
      "मांग ों",
      "गण तंत्र",
      "पत् नी",
      "लौ ट",
      "आंगन बाड़ी",
      "दीपा वली",
      "आ बादी",
      "ब स्ती",
      "ल भ",
      "ल ु",
      "व ंचित",
      "सं यंत्र",
      "सं पत्ति",
      "दि रा",
      "हो त्री",
      "निर् मा",
      "प्रति भा",
      "चौ थे",
      "आर टी",
      "थी ं",
      "सर् वा",
      "डो ज",
      "अड़ तीस",
      "आ लो",
      "ट ्री",
      "थ न",
      "स वाई",
      "सा हित",
      "रू द्व",
      "मे न",
      "करा यी",
      "निक ट",
      "उपलब् धि",
      "जिस का",
      "पद ार्थ",
      "आत ंकी",
      "ंचा ई",
      "गण ेश",
      "आं धी",
      "दृ ढ़",
      "अच्छ े",
      "रहें गी",
      "प्रि य",
      "दोष ियों",
      "स्वर् ण",
      "जिन् हें",
      "बया लीस",
      "समझौ ता",
      "ें डर",
      "बा बा",
      "पू लिस",
      "जिला धिकारियों",
      "उपलब् धियों",
      "मना ने",
      "भे द",
      "प्रो फे",
      "व्र त",
      "दंते वाड़ा",
      "ा म",
      "के शन",
      "नि देश",
      "ति रा",
      "मो चन",
      "सो सि",
      "हित ों",
      "गण मान्य",
      "आयु ष",
      "निश ंक",
      "भाषा ओं",
      "सुनी ल",
      "अथ वा",
      "डब् ल्यू",
      "बरे ली",
      "द लीय",
      "म का",
      "ल म्",
      "मु आव",
      "वी वी",
      "मे ट्रो",
      "अनु भव",
      "स्थित ियों",
      "बढ़ा या",
      "परीक्षा एं",
      "शं सा",
      "सीआर पीएफ",
      "सिया ंग",
      "जमु ई",
      "ए शन",
      "द त्ता",
      "ध ्व",
      "भ क्त",
      "क् छ",
      "रा इ",
      "एस एस",
      "फै लने",
      "फि ट",
      "वायु सेना",
      "अंग ्रे",
      "शरी र",
      "दोग ु",
      "गड करी",
      "अ ली",
      "घ रेल",
      "ब ्य",
      "ै ना",
      "ंच े",
      "मो ली",
      "ंड न",
      "खा तों",
      "सो ई",
      "पहुंच ी",
      "व्या पी",
      "सांसद ों",
      "बाइ ट",
      "नै तिक",
      "मृतक ों",
      "क च",
      "च मोली",
      "स् पर्",
      "ल् थ",
      "कु ंभ",
      "पै से",
      "आप को",
      "लक्ष ्",
      "बू थ",
      "दिखा कर",
      "मशी नों",
      "टेन मेंट",
      "अग्नि होत्री",
      "प्रोजे क्ट",
      "अ नाव",
      "म नी",
      "व ला",
      "स ता",
      "ह जारी",
      "पर ंप",
      "जि क्र",
      "मु स्",
      "चा लू",
      "महिला एं",
      "पै ट",
      "समाचार ों",
      "ज़ रू",
      "दाय ित्व",
      "मॉ डल",
      "गार ्ड",
      "जिन् होंने",
      "औष धि",
      "हस्ता क्षर",
      "रहि ये",
      "ग ें",
      "य ौन",
      "स वे",
      "क् का",
      "रे ड",
      "बता ई",
      "डा ले",
      "क्रिया न्वयन",
      "आधिकार िक",
      "झ ी",
      "स हर",
      "ह ू",
      "का या",
      "त्र ेय",
      "सम् भावना",
      "पि यन",
      "आई सी",
      "सर् दी",
      "आस ानी",
      "सें टी",
      "समू हों",
      "रोहता ंग",
      "फाइन ल",
      "अ मरी",
      "ओ वर",
      "ब ड़",
      "ल घु",
      "ौ ती",
      "वि मा",
      "क्ष ्य",
      "दि ला",
      "त् ती",
      "शि ता",
      "हर ण",
      "पै ंसठ",
      "खिला ड़ी",
      "बह त्तर",
      "हाला त",
      "मनो ज",
      "व्यापार ियों",
      "निरा करण",
      "महासमु ंद",
      "दत्ता त्रेय",
      "क ड़े",
      "न ृ",
      "ब ंडार",
      "ल म",
      "ह क",
      "प्र शि",
      "से व",
      "नि रं",
      "गा इड",
      "सी एच",
      "सि रम",
      "र्थ ियों",
      "कां फ्रेंसिंग",
      "मान्य ता",
      "माल वा",
      "समु चित",
      "चले गा",
      "दोष ी",
      "पार्ट ियों",
      "विज्ञ प्ति",
      "सहर सा",
      "बंडार ू",
      "झ ू",
      "ब हाद",
      "ब ॉल",
      "कि यों",
      "मा इ",
      "बा ंस",
      "कु श",
      "पूर्ण िया",
      "त्रि वेन्द्र",
      "टाइ जर",
      "आग रा",
      "शिकायत ों",
      "तैना ती",
      "उदय पुर",
      "शौ चा",
      "घरेल ू",
      "बहाद ुर",
      "ज मान",
      "फ ार",
      "प्र जा",
      "वि रोधी",
      "मा सिक",
      "द्र ा",
      "ल् या",
      "करोड़ ों",
      "चिकित् सक",
      "वृ त्ति",
      "निका यों",
      "निकल ने",
      "बेच ने",
      "ठो स",
      "अंतरि क्ष",
      "परंप रा",
      "ग ुरु",
      "ढ े",
      "द वाई",
      "न मन",
      "का ज",
      "प्र भार",
      "से क्टर",
      "से वान",
      "पा ट",
      "निर् यात",
      "अप े",
      "बना ते",
      "मर ने",
      "संचा लक",
      "लें स",
      "बीमार ियों",
      "समित ियों",
      "नवरा त्र",
      "सेवान ि",
      "ल खी",
      "स क्षम",
      "सं तु",
      "बढ़ ी",
      "सह कार",
      "जे पी",
      "बेह द",
      "ट्यू ब",
      "सिरम ौर",
      "ट क्कर",
      "लि म",
      "दू ध",
      "जो ड़ा",
      "डा य",
      "हम ने",
      "सब् जी",
      "स्टा फ",
      "पाठ्य क्रम",
      "शीतल हर",
      "आ रा",
      "उ फान",
      "रा क",
      "वा य",
      "सं ग",
      "जी ओ",
      "उप स्थिति",
      "स्ट ि",
      "अधिकार ों",
      "स्क ्री",
      "दस वीं",
      "वासी य",
      "अंतर राष्ट्रीय",
      "लड़ ने",
      "सतर् क",
      "अभिभाव कों",
      "डें गू",
      "सेंटी मीटर",
      "आ गर",
      "ट ंडन",
      "फ ंड",
      "ल कों",
      "श निवार",
      "ह आ",
      "ह ाना",
      "् ज",
      "् स",
      "या नी",
      "कर वाई",
      "हा ट",
      "सम ग्र",
      "पुर ूष",
      "बी ती",
      "अपना ने",
      "पढ़ा ई",
      "काउ ं",
      "भोज पुर",
      "घोटा ले",
      "प्रोफे सर",
      "इ स्ती",
      "न पुर",
      "र सोई",
      "ता कत",
      "लि यन",
      "गा य",
      "बा ंग्",
      "श्री वास्तव",
      "ब् लॉक",
      "सर् वि",
      "ंत्र िक",
      "सै ंप",
      "चरण ों",
      "मुर ैना",
      "निरं तर",
      "अ रूण",
      "ए सोसि",
      "क थित",
      "च ौर",
      "त बाद",
      "ब ्रा",
      "ु मान",
      "ने ह",
      "स् ति",
      "क् ला",
      "लि मि",
      "दि ख",
      "मि ता",
      "सत ना",
      "निका य",
      "दुष् कर्म",
      "गोष्ठ ी",
      "अंग्रे जी",
      "हजारी बाग",
      "आ वासीय",
      "ए ंड",
      "ओ डि",
      "श ्या",
      "ि म",
      "कि रा",
      "वि स्",
      "जा त",
      "बा यो",
      "सी कर",
      "कु शल",
      "खा ने",
      "राम स्वरूप",
      "त्व रित",
      "कारण ों",
      "तला श",
      "पड़े गा",
      "ट्रा ंस",
      "आजी विका",
      "सहकार िता",
      "चा ं",
      "मार े",
      "गे हूं",
      "पो लि",
      "पूर्व ो",
      "व्यवस्था ओं",
      "दौ ड़",
      "जिम्मे दार",
      "आयुर् विज्ञान",
      "आ धुनिक",
      "ख ड़े",
      "ख तरा",
      "झ ंडी",
      "फ ़",
      "सर ल",
      "उन् न",
      "गे ट",
      "पु ष्",
      "कर् फ्यू",
      "दर् जा",
      "पै केज",
      "वाली स",
      "किन ारे",
      "बज कर",
      "अपरा धी",
      "पंजी कृत",
      "मुं बई",
      "पारदर् शिता",
      "क्वारं टीन",
      "मुस् लिम",
      "उ सी",
      "व स्तु",
      "का नें",
      "जन हित",
      "पु त्र",
      "इन की",
      "पुलिस कर्मियों",
      "पि थ",
      "सै जल",
      "कै से",
      "व्यक्ति गत",
      "खु श",
      "चाह ते",
      "फॉ र",
      "भरत पुर",
      "त त्व",
      "वि क्रम",
      "वि शिष्ट",
      "दि लाया",
      "बा की",
      "सु चना",
      "बी जापुर",
      "मान क",
      "ठा कर",
      "भू म",
      "आर एफ",
      "कॉ प्टर",
      "कट ौती",
      "वर्ग ों",
      "दवा ओं",
      "उपभो क्ताओं",
      "मारक ंडा",
      "नृ त्य",
      "ई स्ट",
      "क ब्",
      "ट वीट",
      "भ द्र",
      "व क्त",
      "स ारी",
      "ह स्त",
      "हजार ों",
      "केन्द्र शासित",
      "पी आई",
      "स्व रोजगार",
      "फ् लू",
      "शो षण",
      "त्त री",
      "विस् फो",
      "पूर्वो त्तर",
      "अ म्बा",
      "ऋ षि",
      "त ान",
      "ु ष",
      "जा ंज",
      "बा गेश्वर",
      "रू स",
      "पूर् वा",
      "दर् जन",
      "डी जी",
      "आई ए",
      "ची नी",
      "पूर्व ानु",
      "ख्या त",
      "आधार शिला",
      "संर चना",
      "सलाह कार",
      "उम रिया",
      "स्र ो",
      "नक्स ली",
      "मधु बनी",
      "जमान त",
      "पोलि यो",
      "जांज गीर",
      "पूर्वानु मान",
      "ँ च",
      "अ रो",
      "घ ू",
      "रा ई",
      "बा गम",
      "शि ल्प",
      "टी वी",
      "हन ुमान",
      "मना ई",
      "फो र्स",
      "जता यी",
      "अन् सार",
      "रक्षा मंत्री",
      "आन ंदी",
      "तीसर ी",
      "आचार ्य",
      "जंग ल",
      "दीन दयाल",
      "रें ज",
      "बागम ती",
      "इ कता",
      "क न्",
      "थ ु",
      "ब ें",
      "र मन",
      "वि जन",
      "ता लाब",
      "दे ता",
      "मा या",
      "बा सठ",
      "राज्य भर",
      "पू छताछ",
      "परि स्थितियों",
      "मौ का",
      "धी रे",
      "इं दिरा",
      "प्रदर्श ित",
      "बेड कर",
      "उर् वर",
      "बांग् लादेश",
      "अ ठ",
      "च म्बा",
      "प कों",
      "ु कता",
      "र् ण",
      "क् क",
      "वा ता",
      "क्र ो",
      "रे खा",
      "जाए ं",
      "कर् तव्य",
      "धन ्य",
      "धन बाद",
      "छा ए",
      "फ् तार",
      "जिस की",
      "राय सेन",
      "गंभीर ता",
      "डो र",
      "पच पन",
      "चक्र वा",
      "चम् पारण",
      "न ॉ",
      "् म",
      "नि शुल्क",
      "मा ंगा",
      "सर वीण",
      "सु गम",
      "हि रासत",
      "मी ट",
      "पह ंचा",
      "केन्द्र ित",
      "सिंह भूम",
      "दु ख",
      "बु खार",
      "कां फ्रेंस",
      "सुधार ों",
      "चले गी",
      "प्ला ंट",
      "टेस्ट िंग",
      "उद्य मियों",
      "ए ट",
      "ए टी",
      "भ री",
      "य ही",
      "् त",
      "प्र स्कार",
      "दे ल",
      "रो पण",
      "चार िक",
      "रे शन",
      "कु मारी",
      "स्ट ै",
      "हार ्",
      "पै माने",
      "लॉ जी",
      "कं टेनमेंट",
      "फर ार",
      "जागर ुकता",
      "समू चे",
      "अध्या देश",
      "एयर पोर्ट",
      "आलो चना",
      "लिमि टेड",
      "द पुर",
      "ब से",
      "य मु",
      "श ारी",
      "ो र",
      "वि त्र",
      "रा स्ते",
      "मा धो",
      "रह ना",
      "बल रामपुर",
      "बां का",
      "खरीद ने",
      "अभ्य र्थियों",
      "अल्पसंख्य क",
      "भेद भाव",
      "पिथ ौरा",
      "अम्बा ला",
      "वाता वरण",
      "आ ना",
      "प ारी",
      "फ री",
      "जि या",
      "चार ों",
      "पी सी",
      "विकास खंड",
      "तै ंतीस",
      "जू नियर",
      "नो वल",
      "समस्या एं",
      "भ्र मण",
      "धन्य वाद",
      "शारी रिक",
      "कार गर",
      "दे न",
      "बा वन",
      "स्थ िर",
      "चार ्ज",
      "सौ ंप",
      "बर सात",
      "भि लाई",
      "पो ख",
      "सचिव ों",
      "बु जुर्",
      "प्रो टो",
      "लै ब",
      "इंडि यन",
      "ऑ ल",
      "च य",
      "प वित्र",
      "ब ्याज",
      "य ेंगे",
      "स प",
      "ह मला",
      "प्र देष",
      "ना क",
      "हा लत",
      "लि ंक",
      "ती र्थ",
      "सी मित",
      "द् दा",
      "रह ते",
      "जन संख्या",
      "चार े",
      "मान ी",
      "डि ट",
      "एस ई",
      "अभ ्यास",
      "मांग ी",
      "निका ला",
      "ढा ंचा",
      "लिख ित",
      "कला कारों",
      "प्रावधान ों",
      "फॉ र्म",
      "स्क्री निंग",
      "म न्",
      "ह ॉल",
      "ौ ड़",
      "प्र वास",
      "मा फ",
      "ुर ी",
      "स्थ ी",
      "धि या",
      "सी तारा",
      "पी ढ़ी",
      "कर् ज",
      "जे शन",
      "खबर ें",
      "सीट ें",
      "महानि री",
      "प्रतिबंध ित",
      "शेख पुरा",
      "त नाव",
      "प राज",
      "भ रे",
      "प्र कट",
      "दे गा",
      "सं भागों",
      "सं गीत",
      "राज े",
      "सर ो",
      "बि क्रम",
      "ग्र ू",
      "डी जल",
      "काम काज",
      "व्या व",
      "चला ये",
      "विचार ों",
      "प्रत्य क्ष",
      "पहुंचा या",
      "अदालत ों",
      "किशन गंज",
      "विजे ता",
      "कैं सर",
      "साहित ्य",
      "ग न्ना",
      "ज हाना",
      "न शा",
      "ो ल्",
      "वि नी",
      "सं ध्या",
      "सा कार",
      "सी धी",
      "सी तार",
      "मुख ्यालयों",
      "बर ती",
      "खु राक",
      "तेज स्वी",
      "पहन ने",
      "कड़ा के",
      "लक्ष् मी",
      "एसोसि एशन",
      "जहाना बाद",
      "उ ल",
      "क वि",
      "फ ्रा",
      "श र",
      "प्र स",
      "प्र लिस",
      "स् विधा",
      "क् वि",
      "वि द",
      "सा लों",
      "दि क",
      "म् मत",
      "बना यी",
      "अनु कूल",
      "अव स्थी",
      "शी त",
      "स्व राज",
      "लिया ं",
      "स्प िति",
      "सचि न",
      "रिया ल",
      "राय गढ़",
      "नै नी",
      "धू प",
      "आवं टन",
      "तस्कर ों",
      "इकता लीस",
      "आ शी",
      "आ मद",
      "ई मान",
      "ज ं",
      "ि मा",
      "के दार",
      "ने श",
      "स् त्री",
      "वि मोचन",
      "उन् होने",
      "मुख र्जी",
      "शा ंत",
      "वे शन",
      "ठा सी",
      "पे न्द्र",
      "जु न",
      "हे ली",
      "फो टो",
      "इक हत्तर",
      "भारती यों",
      "उपकरण ों",
      "इक्या वन",
      "चां पा",
      "ोल् लास",
      "आ कां",
      "प चारिक",
      "र फ्तार",
      "ला ए",
      "हा व",
      "दे य",
      "चा वल",
      "कार्य रत",
      "बी ज",
      "पी एल",
      "चौ की",
      "कर् नाटक",
      "सू स",
      "वन ्य",
      "फै लाने",
      "नो ट",
      "सिल ेंडर",
      "संसा धनों",
      "इंटर नेट",
      "मरा ह",
      "अल् मो",
      "सैंप ल",
      "ई डी",
      "उ इ",
      "छ ी",
      "थ ान",
      "न ू",
      "प ठान",
      "फ ते",
      "मि ं",
      "क्र मा",
      "ंड ू",
      "वर् द्",
      "स्ट ्रे",
      "मह सूस",
      "मद न",
      "पहुंच कर",
      "गर् ग",
      "खिल ौ",
      "हर्ष ोल्लास",
      "श्रद्वाल ु",
      "तू ल",
      "स्र क्षा",
      "समृ द्धि",
      "निदेश ालय",
      "वीवी पैट",
      "अपे क्षा",
      "सेवानि वृ",
      "माधो पुर",
      "महानिरी क्षक",
      "अ म्",
      "क स्",
      "प ्याज",
      "कार ्या",
      "इस रो",
      "हो टल",
      "दान ा",
      "निक ले",
      "विशेष कर",
      "आप के",
      "हिमा लय",
      "टीम ों",
      "आम जन",
      "सीमा वर्ती",
      "शिव हर",
      "स्वी प",
      "मजबू ती",
      "उद्य म",
      "बढा ने",
      "कने क्शन",
      "आ कलन",
      "ग ोग",
      "ण ु",
      "भ व्य",
      "पा ण्ड",
      "शा ही",
      "वर् गो",
      "खा ता",
      "ब् दी",
      "मिल ती",
      "राम लाल",
      "स्ट ्रा",
      "टि हरी",
      "खे तों",
      "सात वें",
      "स्तर ों",
      "सै ंतीस",
      "पक्ष ों",
      "भे जी",
      "खु ला",
      "लिख कर",
      "टै क्स",
      "मुआव जा",
      "जीओ वी",
      "उइ के",
      "अ जीत",
      "म च",
      "श ार",
      "ह ज",
      "्य ु",
      "को रिया",
      "्ट न",
      "मान सिक",
      "च् चा",
      "पाल ना",
      "पि ंग",
      "खे त",
      "फा इ",
      "दल पुर",
      "मही नों",
      "चिकित्सा लय",
      "स्वी कृत",
      "पौ धे",
      "वीर ेंद्र",
      "टाइ म्स",
      "समी प",
      "ान् वित",
      "सर्वा धिक",
      "इ स्",
      "ए क्ट",
      "च तु",
      "प ढ़",
      "नि पटा",
      "ड़ िया",
      "बा हरी",
      "द्र दर्शन",
      "सु ंदर",
      "अन लॉक",
      "टे क",
      "लगा ते",
      "चौ बे",
      "शी नगर",
      "दु मका",
      "घा टों",
      "जै विक",
      "कं ट्रोल",
      "निया ं",
      "खु ल",
      "जिन के",
      "ग्री न",
      "कदम ों",
      "भव ती",
      "गर् भवती",
      "कौ शिक",
      "लौ टे",
      "बालिका ओं",
      "पहा ड़ी",
      "स्ना तक",
      "स्टार्ट अप",
      "अ ट",
      "ट ित",
      "भ क्ति",
      "ू त",
      "का ता",
      "का ला",
      "वि नो",
      "रा बाद",
      "सं जीव",
      "मु श्",
      "हो र",
      "सी ए",
      "सी वान",
      "ंग त",
      "बै तूल",
      "राम गढ़",
      "सद नों",
      "जल वायु",
      "पूर्ण िमा",
      "सै ंतालीस",
      "चे क",
      "हाथ ों",
      "बाजार ों",
      "शिविर ों",
      "पुरा ने",
      "मण ि",
      "मंड ला",
      "इ च्छ",
      "क न्या",
      "घ ्",
      "न र्म",
      "र त्",
      "के स",
      "से वी",
      "क् के",
      "ना इ",
      "रा णा",
      "हा बाद",
      "सम झा",
      "मि त्र",
      "क्र वार",
      "शि र",
      "हि यों",
      "म् बई",
      "धार कों",
      "स्ट ॉ",
      "दु कानें",
      "इं स",
      "बद ले",
      "ताल मेल",
      "लाभार् थी",
      "तला क",
      "सर्व श्रेष्ठ",
      "विविध ता",
      "विमा ग",
      "पोख रियाल",
      "ण े",
      "ध ्वज",
      "न ग",
      "न मो",
      "म स्",
      "ल हर",
      "ि णी",
      "को हरे",
      "से तु",
      "र् थी",
      "क्ष य",
      "नी ट",
      "चा स",
      "ल् तान",
      "शा ल",
      "सु मन",
      "मे ह",
      "पु ण्य",
      "बे हत",
      "ठा वन",
      "डा लने",
      "तै ंतालीस",
      "पै रा",
      "मार् गो",
      "हे ल्थ",
      "पर्य टक",
      "जल् दी",
      "बढ़ो त्तरी",
      "तिर पन",
      "कोल काता",
      "पिथौरा गढ़",
      "अल्मो ड़ा",
      "प िक",
      "प्र ार्थ",
      "से न्",
      "स् ख",
      "वि ंग",
      "रा धा",
      "लि खे",
      "सा क्षर",
      "सु भाष",
      "मी णा",
      "जी पुर",
      "खा द्",
      "स्ट ्र",
      "जग दलपुर",
      "दर ों",
      "श्रद् दा",
      "लाभ ान्वित",
      "पड़ ो",
      "साह स",
      "खो ला",
      "आकर् षक",
      "भक्त ों",
      "प्रार्थ ना",
      "अ त्या",
      "छ प्",
      "ज ौन",
      "थ र",
      "ब म",
      "रा हल",
      "सी ख",
      "टी में",
      "गे टिव",
      "बि र",
      "सिंह देव",
      "हर संभव",
      "डी एम",
      "उत् तरी",
      "दिव ंगत",
      "ट्र ि",
      "उच्च स्तरीय",
      "लं बी",
      "पॉ जी",
      "गौ तम",
      "युव कों",
      "बदल ने",
      "ण् डी",
      "इलेक् ट्रॉ",
      "हेल्प लाइन",
      "गिरि डीह",
      "नेह रू",
      "अरो ड़ा",
      "प्रस न्न",
      "आमद नी",
      "बेहत री",
      "ं जी",
      "ई रानी",
      "उ तार",
      "ए शिया",
      "ग म्",
      "त माम",
      "त मिलना",
      "ध वार",
      "प ौर",
      "ब जाय",
      "भ गत",
      "म छ",
      "व ही",
      "वि न",
      "हि र",
      "अनु पालन",
      "तीस रा",
      "अग ली",
      "बचा ओ",
      "लाल जी",
      "जरूरत मंद",
      "जमा व",
      "प्रखंड ों",
      "सीबी एसई",
      "क्षति ग्रस्त",
      "चौरा सी",
      "रक्त दान",
      "आ खि",
      "क मान",
      "ब त",
      "म त्",
      "ने गी",
      "हा उस",
      "मा ंगे",
      "सी आई",
      "शि खर",
      "सु ल",
      "बि का",
      "कों डा",
      "डी सी",
      "उपल क्ष्य",
      "ज़ ार",
      "हिस् से",
      "मदद गार",
      "रोध क",
      "पार् थि",
      "प्रतिनिधि मंडल",
      "अध्या पकों",
      "संभा वित",
      "सत्या पन",
      "आगर मालवा",
      "पराज ित",
      "इ कस",
      "ज लाने",
      "ान बे",
      "ना हन",
      "वि केट",
      "सा वधान",
      "सु दृढ़",
      "मो बाई",
      "मान कों",
      "मे श्वर",
      "चौ हत्तर",
      "सुर ंग",
      "महा पौर",
      "कॉ म",
      "राष्ट्र पिता",
      "मार्ग दर्शन",
      "दाय रे",
      "बाल क",
      "मुद् दा",
      "नान क",
      "बढ़े गी",
      "रिट र्न",
      "स्पर् धा",
      "माया वती",
      "नैनी ताल",
      "नर्म दा",
      "इकस ठ",
      "मोबाई ल",
      "अ ब्",
      "आ ते",
      "क मि",
      "ग हरी",
      "ी करण",
      "क् की",
      "दि ल",
      "गा ई",
      "मार कर",
      "मे हन",
      "सह योगी",
      "चौ ंतीस",
      "दर् शा",
      "सो साय",
      "छा पा",
      "खु लने",
      "गरी बी",
      "ढा ंचे",
      "संशो धित",
      "मानव ता",
      "अग्र िम",
      "हिं दी",
      "लाइ ट",
      "निकाल ने",
      "पियन शिप",
      "ल्या ंकन",
      "विनो द",
      "मस् जि",
      "छप् पन",
      "पॉजी टिव",
      "पार्थि व",
      "अ खि",
      "आ सार",
      "आ वेद",
      "क प",
      "क ्यू",
      "र जि",
      "ार ण",
      "वि धिक",
      "वि रूद्व",
      "बा धा",
      "मु म्बई",
      "रह कर",
      "चा हे",
      "म् म",
      "मे रा",
      "ग्र ु",
      "चौ वालीस",
      "जान कार",
      "बो कारो",
      "अब तक",
      "शे खर",
      "आप रा",
      "सब ुक",
      "झा लावा",
      "देव व्रत",
      "अल वर",
      "चै नल",
      "मोटर साइकिल",
      "प्रोटो कॉल",
      "शिर कत",
      "अ रवि",
      "आ यात",
      "ई या",
      "न ज",
      "फ ्रे",
      "स् कृत",
      "वा ंग",
      "जा ज",
      "मु द्रा",
      "सी होर",
      "ते ल",
      "रि मा",
      "आज म",
      "जन मंच",
      "चि ंग",
      "चु ने",
      "पी ने",
      "खा ड़ी",
      "कर् नल",
      "आर ंभ",
      "गु मराह",
      "पिछ ड़ा",
      "एन सीसी",
      "वैक्सी नेशन",
      "केश व",
      "मता धिकार",
      "मंड ियों",
      "फु ट",
      "थु रा",
      "जौन पुर",
      "आपरा धिक",
      "आ ती",
      "ध र्",
      "प ड़ी",
      "भ ौ",
      "म थुरा",
      "श ू",
      "श ता",
      "स वा",
      "ो ह",
      "प्र किया",
      "वि रासत",
      "क्ष ो",
      "ली टर",
      "मि ट",
      "धान िक",
      "यो द्",
      "अनु सु",
      "डी आर",
      "लोक न",
      "सड़ सठ",
      "शिव रात्रि",
      "अड़ सठ",
      "आश्र य",
      "इंजी निय",
      "उ दा",
      "ऊ ंचाई",
      "ट िया",
      "थ र्",
      "ध म",
      "ह ्",
      "के त",
      "का न्",
      "को ण",
      "से ने",
      "वा ड़ी",
      "दे वास",
      "त् तम",
      "डा क्टर",
      "भू गतान",
      "जाय ेंगी",
      "खरी फ",
      "एफ आईआर",
      "बां दी",
      "अफ वा",
      "चाह ती",
      "मां झी",
      "जिस्ट्रे शन",
      "ओडि शा",
      "गम् भीर",
      "अ मल",
      "त भी",
      "न ित",
      "य री",
      "र जिस्ट्रेशन",
      "व चन",
      "का व",
      "ना यक",
      "वि श्",
      "वि वरण",
      "वि क्षो",
      "ले रिया",
      "भाग िता",
      "उन सठ",
      "पे पर",
      "एं टी",
      "टि फि",
      "फै ल",
      "खंड पीठ",
      "यू पी",
      "बु द्ध",
      "कलेक्टर ों",
      "अपराध ों",
      "पीड़ित ों",
      "छिया सी",
      "नवी न",
      "सवे रा",
      "रजि स्टर",
      "ऑ फि",
      "घ ान",
      "ज हा",
      "न यी",
      "ब लिया",
      "र् जर",
      "सं गोष्ठी",
      "जि कल",
      "जन प्रतिनिधियों",
      "कार्य योजना",
      "अन ू",
      "प् लान",
      "पी ली",
      "लग ाना",
      "वर्ष ीय",
      "शु क्रवार",
      "पै ं",
      "बु न",
      "वृ क्ष",
      "लं बे",
      "ज्यादा तर",
      "अभि य",
      "छो टी",
      "जनसभा ओं",
      "चाह ता",
      "चो री",
      "ज्यो ति",
      "हंगा मा",
      "जोग ी",
      "स्ख लन",
      "प्रसन्न ता",
      "कोंडा गांव",
      "अखि लेश",
      "च ढ़",
      "ज री",
      "न कद",
      "व ण",
      "स तीश",
      "स त्ती",
      "ो ई",
      "् क्त",
      "प्र कृति",
      "सं वै",
      "एक ड़",
      "हैं ड",
      "सि डी",
      "बै ड",
      "लो जपा",
      "सह भागिता",
      "स्ट ्री",
      "डा ल",
      "धर ना",
      "शु न्य",
      "भव नों",
      "सत हत्तर",
      "प्रस्तु ति",
      "समझौ ते",
      "आयुर् वेद",
      "आंक ड़ा",
      "लगवा ने",
      "यूनि ट",
      "आवं टित",
      "आनंदी बेन",
      "इ ंद्र",
      "ई ई",
      "ग र्म",
      "ब काया",
      "म धे",
      "र ॉ",
      "या नि",
      "को हरा",
      "प्र भाग",
      "प्र शंसा",
      "वि टी",
      "ले टर",
      "सं ज्ञान",
      "सा ध",
      "ही न",
      "मु ंडा",
      "बं ट",
      "पु स्तक",
      "प्रति क्रिया",
      "बै ंकिंग",
      "खा द",
      "अव लोकन",
      "बे टियों",
      "जु टे",
      "पै सा",
      "पै दल",
      "फी सदी",
      "अर् जुन",
      "निवेश कों",
      "बच त",
      "अहम दाबाद",
      "श्रो ता",
      "प्रकरण ों",
      "सीतारा मन",
      "गोग ोई"
    ]
  }
}